{
  "version": "1.0",
  "truncation": null,
  "padding": null,
  "added_tokens": [],
  "normalizer": null,
  "pre_tokenizer": {
    "type": "ByteLevel",
    "add_prefix_space": false,
    "trim_offsets": true,
    "use_regex": true
  },
  "post_processor": {
    "type": "ByteLevel",
    "add_prefix_space": true,
    "trim_offsets": false,
    "use_regex": true
  },
  "decoder": {
    "type": "ByteLevel",
    "add_prefix_space": true,
    "trim_offsets": true,
    "use_regex": true
  },
  "model": {
    "type": "BPE",
    "dropout": null,
    "unk_token": null,
    "continuing_subword_prefix": null,
    "end_of_word_suffix": null,
    "fuse_unk": false,
    "byte_fallback": false,
    "ignore_merges": false,
    "vocab": {
      "\u0000": 0,
      "\u0001": 1,
      "\u0002": 2,
      "\u0003": 3,
      "\u0004": 4,
      "\u0005": 5,
      "\u0006": 6,
      "\u0007": 7,
      "\b": 8,
      "\t": 9,
      "\n": 10,
      "\u000b": 11,
      "\f": 12,
      "\r": 13,
      "\u000e": 14,
      "\u000f": 15,
      "\u0010": 16,
      "\u0011": 17,
      "\u0012": 18,
      "\u0013": 19,
      "\u0014": 20,
      "\u0015": 21,
      "\u0016": 22,
      "\u0017": 23,
      "\u0018": 24,
      "\u0019": 25,
      "\u001a": 26,
      "\u001b": 27,
      "\u001c": 28,
      "\u001d": 29,
      "\u001e": 30,
      "\u001f": 31,
      " ": 32,
      "!": 33,
      "\"": 34,
      "#": 35,
      "$": 36,
      "%": 37,
      "&": 38,
      "'": 39,
      "(": 40,
      ")": 41,
      "*": 42,
      "+": 43,
      ",": 44,
      "-": 45,
      ".": 46,
      "/": 47,
      "0": 48,
      "1": 49,
      "2": 50,
      "3": 51,
      "4": 52,
      "5": 53,
      "6": 54,
      "7": 55,
      "8": 56,
      "9": 57,
      ":": 58,
      ";": 59,
      "<": 60,
      "=": 61,
      ">": 62,
      "?": 63,
      "@": 64,
      "A": 65,
      "B": 66,
      "C": 67,
      "D": 68,
      "E": 69,
      "F": 70,
      "G": 71,
      "H": 72,
      "I": 73,
      "J": 74,
      "K": 75,
      "L": 76,
      "M": 77,
      "N": 78,
      "O": 79,
      "P": 80,
      "Q": 81,
      "R": 82,
      "S": 83,
      "T": 84,
      "U": 85,
      "V": 86,
      "W": 87,
      "X": 88,
      "Y": 89,
      "Z": 90,
      "[": 91,
      "\\": 92,
      "]": 93,
      "^": 94,
      "_": 95,
      "`": 96,
      "a": 97,
      "b": 98,
      "c": 99,
      "d": 100,
      "e": 101,
      "f": 102,
      "g": 103,
      "h": 104,
      "i": 105,
      "j": 106,
      "k": 107,
      "l": 108,
      "m": 109,
      "n": 110,
      "o": 111,
      "p": 112,
      "q": 113,
      "r": 114,
      "s": 115,
      "t": 116,
      "u": 117,
      "v": 118,
      "w": 119,
      "x": 120,
      "y": 121,
      "z": 122,
      "{": 123,
      "|": 124,
      "}": 125,
      "~": 126,
      "": 127,
      "": 128,
      "": 129,
      "": 130,
      "": 131,
      "": 132,
      "": 133,
      "": 134,
      "": 135,
      "": 136,
      "": 137,
      "": 138,
      "": 139,
      "": 140,
      "": 141,
      "": 142,
      "": 143,
      "": 144,
      "": 145,
      "": 146,
      "": 147,
      "": 148,
      "": 149,
      "": 150,
      "": 151,
      "": 152,
      "": 153,
      "": 154,
      "": 155,
      "": 156,
      "": 157,
      "": 158,
      "": 159,
      " ": 160,
      "¡": 161,
      "¢": 162,
      "£": 163,
      "¤": 164,
      "¥": 165,
      "¦": 166,
      "§": 167,
      "¨": 168,
      "©": 169,
      "ª": 170,
      "«": 171,
      "¬": 172,
      "­": 173,
      "®": 174,
      "¯": 175,
      "°": 176,
      "±": 177,
      "²": 178,
      "³": 179,
      "´": 180,
      "µ": 181,
      "¶": 182,
      "·": 183,
      "¸": 184,
      "¹": 185,
      "º": 186,
      "»": 187,
      "¼": 188,
      "½": 189,
      "¾": 190,
      "¿": 191,
      "À": 192,
      "Á": 193,
      "Â": 194,
      "Ã": 195,
      "Ä": 196,
      "Å": 197,
      "Æ": 198,
      "Ç": 199,
      "È": 200,
      "Ā": 201,
      "ā": 202,
      "Ă": 203,
      "ă": 204,
      "Ą": 205,
      "ą": 206,
      "Ć": 207,
      "ć": 208,
      "Ĉ": 209,
      "ĉ": 210,
      "Ċ": 211,
      "ċ": 212,
      "Č": 213,
      "č": 214,
      "Ď": 215,
      "ď": 216,
      "Đ": 217,
      "đ": 218,
      "Ē": 219,
      "ē": 220,
      "Ĕ": 221,
      "ĕ": 222,
      "Ė": 223,
      "ė": 224,
      "Ę": 225,
      "ę": 226,
      "Ě": 227,
      "ě": 228,
      "Ĝ": 229,
      "ĝ": 230,
      "Ğ": 231,
      "ğ": 232,
      "Ġ": 233,
      "ġ": 234,
      "Ģ": 235,
      "ģ": 236,
      "Ĥ": 237,
      "ĥ": 238,
      "Ħ": 239,
      "ħ": 240,
      "Ĩ": 241,
      "ĩ": 242,
      "Ī": 243,
      "ī": 244,
      "Ĭ": 245,
      "ĭ": 246,
      "Į": 247,
      "į": 248,
      "İ": 249,
      "ı": 250,
      "Ĳ": 251,
      "ĳ": 252,
      "Ĵ": 253,
      "ĵ": 254,
      "Ķ": 255,
      "ķ": 256,
      "ĸ": 257,
      "Ĺ": 258,
      "ĺ": 259,
      "Ļ": 260,
      "ļ": 261,
      "Ľ": 262,
      "ľ": 263,
      "Ŀ": 264,
      "ŀ": 265,
      "Ł": 266,
      "ł": 267,
      "Ń": 268,
      "dd": 269,
      "ddd": 270,
      "ff": 271,
      "ee": 272,
      "fg": 273,
      "hh": 274,
      "fe": 275,
      "dddd": 276,
      "be": 277,
      "ÃĪ": 278,
      "hg": 279,
      "bee": 280,
      "bi": 281,
      "gg": 282,
      "cddd": 283,
      "fd": 284,
      "edddd": 285,
      "ce": 286,
      "ai": 287,
      "bed": 288,
      "fh": 289,
      "bfg": 290,
      "eg": 291,
      "ÂĢ": 292,
      "Âģ": 293,
      "ÂĤ": 294,
      "de": 295,
      "cff": 296,
      "Âĥ": 297,
      "hf": 298,
      "ÂĦ": 299,
      "bihg": 300,
      "Âħ": 301,
      "ÂĨ": 302,
      "ehh": 303,
      "Âĩ": 304,
      "fgh": 305,
      "bedbee": 306,
      "ÂĪ": 307,
      "fgi": 308,
      "Âī": 309,
      "ge": 310,
      "ffh": 311,
      "cee": 312,
      "ÂĬ": 313,
      "cfe": 314,
      "hi": 315,
      "gf": 316,
      "Âĭ": 317,
      "bddd": 318,
      "bfe": 319,
      "bihgedddd": 320,
      "ÂĮ": 321,
      "Âį": 322,
      "Âİ": 323,
      "he": 324,
      "Âı": 325,
      "bfd": 326,
      "ÂĲ": 327,
      "df": 328,
      "Âĳ": 329,
      "gh": 330,
      "ae": 331,
      "cdddfgi": 332,
      "ffff": 333,
      "ÂĴ": 334,
      "bedbeebee": 335,
      "bfgcff": 336,
      "dddb": 337,
      "Âĵ": 338,
      "ÂĶ": 339,
      "ddda": 340,
      "Âķ": 341,
      "Âĸ": 342,
      "fc": 343,
      "bj": 344,
      "gd": 345,
      "ÂĹ": 346,
      "ced": 347,
      "cdddfgifgh": 348,
      "beg": 349,
      "fffffg": 350,
      "Âĺ": 351,
      "fi": 352,
      "dg": 353,
      "Âļ": 354,
      "ÂĻ": 355,
      "dddc": 356,
      "bff": 357,
      "aihg": 358,
      "ehhhf": 359,
      "ÂĽ": 360,
      "bihgeddddbfgcff": 361,
      "Âľ": 362,
      "ie": 363,
      "fffffgffh": 364,
      "ÂĿ": 365,
      "aj": 366,
      "cdddfgifghfffffgffh": 367,
      "ig": 368,
      "Âŀ": 369,
      "bihgeddddbfgcffbedbeebee": 370,
      "ÂŁ": 371,
      "cg": 372,
      "bef": 373,
      "cd": 374,
      "ehhhfcdddfgifghfffffgffh": 375,
      "Âł": 376,
      "cfd": 377,
      "bihgeddddbfgcffbedbeebeeehhhfcdddfgifghfffffgffh": 378,
      "Â¡": 379,
      "bd": 380,
      "eeddd": 381,
      "hd": 382,
      "if": 383,
      "Â¢": 384,
      "cf": 385,
      "Â£": 386,
      "Â¤": 387,
      "addd": 388,
      "gi": 389,
      "ci": 390,
      "bde": 391,
      "ffg": 392,
      "cef": 393,
      "hj": 394,
      "bfgcfe": 395,
      "Â¥": 396,
      "Â¦": 397,
      "beebee": 398,
      "bigg": 399,
      "ddde": 400,
      "bg": 401,
      "Â§": 402,
      "cj": 403,
      "fdddd": 404,
      "Â¨": 405,
      "Â©": 406,
      "hc": 407,
      "Âª": 408,
      "Â«": 409,
      "bf": 410,
      "je": 411,
      "Â¬": 412,
      "ii": 413,
      "ĀĀ": 414,
      "cc": 415,
      "Â®": 416,
      "ÂŃ": 417,
      "ef": 418,
      "ÃĪddd": 419,
      "aihgedddd": 420,
      "aee": 421,
      "Â¯": 422,
      "bfh": 423,
      "ÃĪÃĪ": 424,
      "hk": 425,
      "ad": 426,
      "ddddd": 427,
      "Â°": 428,
      "bih": 429,
      "ag": 430,
      "aigg": 431,
      "jg": 432,
      "ahh": 433,
      "Â²": 434,
      "aih": 435,
      "fgg": 436,
      "fj": 437,
      "di": 438,
      "Â±": 439,
      "bhh": 440,
      "dddg": 441,
      "ei": 442,
      "bk": 443,
      "Â³": 444,
      "big": 445,
      "eddd": 446,
      "Â´": 447,
      "ch": 448,
      "cde": 449,
      "eh": 450,
      "fhh": 451,
      "Âµ": 452,
      "dddi": 453,
      "fedddd": 454,
      "dddf": 455,
      "beh": 456,
      "ck": 457,
      "ed": 458,
      "Â·": 459,
      "dddj": 460,
      "egh": 461,
      "ih": 462,
      "dddk": 463,
      "feh": 464,
      "id": 465,
      "dddbfh": 466,
      "Â¶": 467,
      "ak": 468,
      "dddl": 469,
      "bh": 470,
      "jd": 471,
      "Â¸": 472,
      "Â¹": 473,
      "cb": 474,
      "af": 475,
      "dddh": 476,
      "afe": 477,
      "Âº": 478,
      "bfebee": 479,
      "afg": 480,
      "dh": 481,
      "aig": 482,
      "bdf": 483,
      "ggi": 484,
      "bhg": 485,
      "jj": 486,
      "cge": 487,
      "Â»": 488,
      "dddm": 489,
      "egg": 490,
      "ji": 491,
      "jf": 492,
      "biggedddd": 493,
      "Â½": 494,
      "afh": 495,
      "Â¼": 496,
      "dddn": 497,
      "lg": 498,
      "ah": 499,
      "kg": 500,
      "ke": 501,
      "eghh": 502,
      "ahg": 503,
      "Â¾": 504,
      "fddd": 505,
      "cl": 506,
      "afd": 507,
      "jh": 508,
      "aeg": 509,
      "feg": 510,
      "Â¿": 511,
      "bedbedbee": 512,
      "fhi": 513,
      "ecddd": 514,
      "aeh": 515,
      "bfdbee": 516,
      "bl": 517,
      "ÃĢ": 518,
      "bge": 519,
      "dddo": 520,
      "Ãģ": 521,
      "feddd": 522,
      "bihh": 523,
      "fk": 524,
      "bc": 525,
      "jk": 526,
      "dddZ": 527,
      "cedcee": 528,
      "Ãĥ": 529,
      "ceg": 530,
      "efg": 531,
      "bdd": 532,
      "ffi": 533,
      "ki": 534,
      "al": 535,
      "dj": 536,
      "``": 537,
      "ÃĤ": 538,
      "bm": 539,
      "ehg": 540,
      "gedddd": 541,
      "ej": 542,
      "gj": 543,
      "ca": 544,
      "aed": 545,
      "kd": 546,
      "aef": 547,
      "cm": 548,
      "fcddd": 549,
      "dddq": 550,
      "eeg": 551,
      "bb": 552,
      "ÃĦ": 553,
      "dddY": 554,
      "ij": 555,
      "dddp": 556,
      "efh": 557,
      "Ãħ": 558,
      "cdddd": 559,
      "bfhcff": 560,
      "hl": 561,
      "cgf": 562,
      "dddX": 563,
      "dk": 564,
      "am": 565,
      "fl": 566,
      "ÃĨ": 567,
      "aiggedddd": 568,
      "ddds": 569,
      "dddÃĪ": 570,
      "ehi": 571,
      "Ãĩ": 572,
      "ik": 573,
      "ba": 574,
      "`_": 575,
      "ek": 576,
      "bedbed": 577,
      "cdf": 578,
      "gk": 579,
      "bdddfgi": 580,
      "aff": 581,
      "dddr": 582,
      "fgff": 583,
      "dddV": 584,
      "dddW": 585,
      "bgf": 586,
      "jl": 587,
      "ec": 588,
      "_`": 589,
      "bn": 590,
      "cfg": 591,
      "gc": 592,
      "il": 593,
      "fm": 594,
      "ade": 595,
      "dddt": 596,
      "begcee": 597,
      "dl": 598,
      "ha": 599,
      "cn": 600,
      "eeddda": 601,
      "ehhhe": 602,
      "el": 603,
      "hm": 604,
      "kj": 605,
      "dfe": 606,
      "aihh": 607,
      "gl": 608,
      "^`": 609,
      "an": 610,
      "kk": 611,
      "dddU": 612,
      "ic": 613,
      "dddu": 614,
      "begcfe": 615,
      "hb": 616,
      "bfebfe": 617,
      "__": 618,
      "im": 619,
      "fb": 620,
      "ffgffh": 621,
      "dddT": 622,
      "dddv": 623,
      "fehh": 624,
      "ffdddd": 625,
      "bfc": 626,
      "fa": 627,
      "em": 628,
      "^_": 629,
      "cfc": 630,
      "cdd": 631,
      "jm": 632,
      "hn": 633,
      "kl": 634,
      "eff": 635,
      "aa": 636,
      "egi": 637,
      "bo": 638,
      "deddd": 639,
      "ddddda": 640,
      "fn": 641,
      "`^": 642,
      "bgd": 643,
      "dddS": 644,
      "dm": 645,
      "km": 646,
      "gm": 647,
      "ll": 648,
      "dff": 649,
      "gb": 650,
      "eedddbfh": 651,
      "dddQ": 652,
      "dddx": 653,
      "dc": 654,
      "eeh": 655,
      "kh": 656,
      "gfdddd": 657,
      "ia": 658,
      "dddw": 659,
      "ib": 660,
      "bihgeeddd": 661,
      "jc": 662,
      "bhi": 663,
      "ga": 664,
      "bfdbfebee": 665,
      "]`": 666,
      "_^": 667,
      "fei": 668,
      "cgd": 669,
      "begcff": 670,
      "hfcddd": 671,
      "gn": 672,
      "dddP": 673,
      "bce": 674,
      "bihgfdddd": 675,
      "ld": 676,
      "jn": 677,
      "om": 678,
      "li": 679,
      "Zddd": 680,
      "^^": 681,
      "lk": 682,
      "fhg": 683,
      "jb": 684,
      "eb": 685,
      "bii": 686,
      "ac": 687,
      "dddR": 688,
      "eghi": 689,
      "en": 690,
      "`]": 691,
      "bjh": 692,
      "kf": 693,
      "in": 694,
      "dddz": 695,
      "ea": 696,
      "ja": 697,
      "lm": 698,
      "]_": 699,
      "bdg": 700,
      "lh": 701,
      "ceecee": 702,
      "\\`": 703,
      "dhh": 704,
      "adf": 705,
      "dddy": 706,
      "pm": 707,
      "bgg": 708,
      "fo": 709,
      "le": 710,
      "gddd": 711,
      "dn": 712,
      "da": 713,
      "lj": 714,
      "db": 715,
      "ho": 716,
      "kn": 717,
      "eehh": 718,
      "_]": 719,
      "bfdbfdbee": 720,
      "hecddd": 721,
      "pn": 722,
      "co": 723,
      "dddO": 724,
      "bec": 725,
      "ln": 726,
      "\\_": 727,
      "aii": 728,
      "ab": 729,
      "eo": 730,
      "dee": 731,
      "fgfffg": 732,
      "hgedddd": 733,
      "dddN": 734,
      "`\\": 735,
      "]^": 736,
      "go": 737,
      "kc": 738,
      "io": 739,
      "hddd": 740,
      "ahi": 741,
      "\\^": 742,
      "jo": 743,
      "fp": 744,
      "bjg": 745,
      "mg": 746,
      "ao": 747,
      "cec": 748,
      "iddd": 749,
      "bfdbfd": 750,
      "cp": 751,
      "bp": 752,
      "eedddbfg": 753,
      "Yddd": 754,
      "jddd": 755,
      "do": 756,
      "aihgfdddd": 757,
      "dddcfg": 758,
      "iecddd": 759,
      "mk": 760,
      "me": 761,
      "lf": 762,
      "Xddd": 763,
      "ap": 764,
      "mi": 765,
      "^]": 766,
      "lo": 767,
      "qn": 768,
      "[`": 769,
      "Vddd": 770,
      "behcef": 771,
      "_\\": 772,
      "bihgeddddbfhcff": 773,
      "qm": 774,
      "Uddd": 775,
      "Wddd": 776,
      "dcddd": 777,
      "hp": 778,
      "begcef": 779,
      "ka": 780,
      "mj": 781,
      "]]": 782,
      "bfdbeebee": 783,
      "lc": 784,
      "ifcddd": 785,
      "fbddd": 786,
      "[^": 787,
      "hfdddd": 788,
      "jp": 789,
      "mn": 790,
      "age": 791,
      "dddL": 792,
      "[_": 793,
      "qo": 794,
      "kb": 795,
      "dge": 796,
      "]\\": 797,
      "ml": 798,
      "dde": 799,
      "`[": 800,
      "dp": 801,
      "biggeddddbfgcfe": 802,
      "mf": 803,
      "^\\": 804,
      "ko": 805,
      "mm": 806,
      "dddM": 807,
      "ro": 808,
      "ng": 809,
      "ggj": 810,
      "fee": 811,
      "la": 812,
      "eedddbfgcfe": 813,
      "gfi": 814,
      "qp": 815,
      "bigh": 816,
      "ghi": 817,
      "mo": 818,
      "md": 819,
      "gp": 820,
      "afhbff": 821,
      "bihgeddddbfgcfe": 822,
      "\\]": 823,
      "kddd": 824,
      "hr": 825,
      "kp": 826,
      "fde": 827,
      "cgg": 828,
      "cfdcee": 829,
      "ep": 830,
      "ip": 831,
      "^[": 832,
      "nj": 833,
      "cedbee": 834,
      "Tddd": 835,
      "_[": 836,
      "lddd": 837,
      "Rddd": 838,
      "bdddfgifgh": 839,
      "mh": 840,
      "fgj": 841,
      "ne": 842,
      "Sddd": 843,
      "nl": 844,
      "nk": 845,
      "fefg": 846,
      "feff": 847,
      "lb": 848,
      "ni": 849,
      "fecddd": 850,
      "fq": 851,
      "nd": 852,
      "mddd": 853,
      "cq": 854,
      "hq": 855,
      "ebddd": 856,
      "no": 857,
      "][": 858,
      "br": 859,
      "nh": 860,
      "og": 861,
      "fr": 862,
      "cr": 863,
      "jq": 864,
      "[\\": 865,
      "eedddb": 866,
      "np": 867,
      "agg": 868,
      "lp": 869,
      "bq": 870,
      "bfdbfe": 871,
      "fghh": 872,
      "dddJ": 873,
      "so": 874,
      "\\\\": 875,
      "afgbfe": 876,
      "fghg": 877,
      "bdddd": 878,
      "Zo": 879,
      "adg": 880,
      "cdddfgiffh": 881,
      "[]": 882,
      "chg": 883,
      "fhj": 884,
      "cedced": 885,
      "ajh": 886,
      "nm": 887,
      "eq": 888,
      "ggh": 889,
      "Pddd": 890,
      "agd": 891,
      "bcf": 892,
      "beebeebef": 893,
      "Qddd": 894,
      "pk": 895,
      "Oddd": 896,
      "od": 897,
      "iq": 898,
      "ir": 899,
      "aq": 900,
      "behcff": 901,
      "fs": 902,
      "afc": 903,
      "kq": 904,
      "bfgbff": 905,
      "ceh": 906,
      "\\[": 907,
      "ar": 908,
      "dhg": 909,
      "dgg": 910,
      "lq": 911,
      "nn": 912,
      "jr": 913,
      "pg": 914,
      "lr": 915,
      "ffe": 916,
      "chh": 917,
      "agf": 918,
      "eZ": 919,
      "ajg": 920,
      "eei": 921,
      "ÃĪdddÃĪ": 922,
      "bs": 923,
      "jZ": 924,
      "ggifgh": 925,
      "ggedddd": 926,
      "cefc": 927,
      "hZ": 928,
      "bhe": 929,
      "bZ": 930,
      "nq": 931,
      "dq": 932,
      "er": 933,
      "cZ": 934,
      "ft": 935,
      "js": 936,
      "fegg": 937,
      "nddd": 938,
      "dddI": 939,
      "po": 940,
      "kr": 941,
      "bhhg": 942,
      "cs": 943,
      "gq": 944,
      "aZ": 945,
      "che": 946,
      "def": 947,
      "eedddbfhcff": 948,
      "pddd": 949,
      "add": 950,
      "tddd": 951,
      "ol": 952,
      "Mddd": 953,
      "oi": 954,
      "ph": 955,
      "[[": 956,
      "ok": 957,
      "aeeaee": 958,
      "oe": 959,
      "ddf": 960,
      "dddafh": 961,
      "pj": 962,
      "uddd": 963,
      "ace": 964,
      "Nddd": 965,
      "fZ": 966,
      "sddd": 967,
      "pe": 968,
      "bedbeebde": 969,
      "bedbde": 970,
      "pd": 971,
      "igedddd": 972,
      "as": 973,
      "cfdcfe": 974,
      "mc": 975,
      "Lddd": 976,
      "Kddd": 977,
      "fgfffgffh": 978,
      "qddd": 979,
      "oh": 980,
      "pi": 981,
      "gr": 982,
      "ghj": 983,
      "dr": 984,
      "bgh": 985,
      "qk": 986,
      "pl": 987,
      "dfg": 988,
      "wddd": 989,
      "cdg": 990,
      "beebeebe": 991,
      "at": 992,
      "ct": 993,
      "oj": 994,
      "bhf": 995,
      "gZ": 996,
      "nf": 997,
      "bY": 998,
      "ffcddd": 999,
      "cY": 1000,
      "bt": 1001,
      "beebef": 1002,
      "eghhe": 1003,
      "iZ": 1004,
      "is": 1005,
      "ht": 1006,
      "dZ": 1007,
      "efi": 1008,
      "oo": 1009,
      "es": 1010,
      "bjhg": 1011,
      "kZ": 1012,
      "ma": 1013,
      "aihgeddddbfgcff": 1014,
      "mp": 1015,
      "hs": 1016,
      "ahhg": 1017,
      "et": 1018,
      "hfbddd": 1019,
      "on": 1020,
      "mr": 1021,
      "mq": 1022,
      "oddd": 1023,
      "hX": 1024,
      "au": 1025,
      "aY": 1026,
      "ql": 1027,
      "cgc": 1028,
      "ggg": 1029,
      "bedcee": 1030,
      "bX": 1031,
      "bgc": 1032,
      "qg": 1033,
      "fX": 1034,
      "rddd": 1035,
      "eghhf": 1036,
      "Zi": 1037,
      "eghg": 1038,
      "cedcedcee": 1039,
      "dgf": 1040,
      "qd": 1041,
      "dddK": 1042,
      "fffg": 1043,
      "jY": 1044,
      "ddg": 1045,
      "bihfedddd": 1046,
      "kY": 1047,
      "hY": 1048,
      "dfd": 1049,
      "jt": 1050,
      "fY": 1051,
      "xddd": 1052,
      "it": 1053,
      "bcd": 1054,
      "ls": 1055,
      "cig": 1056,
      "bihf": 1057,
      "cfh": 1058,
      "gghg": 1059,
      "vddd": 1060,
      "cX": 1061,
      "iY": 1062,
      "mb": 1063,
      "nr": 1064,
      "agh": 1065,
      "fu": 1066,
      "dddbfhcff": 1067,
      "Zd": 1068,
      "Zg": 1069,
      "aigh": 1070,
      "Jddd": 1071,
      "eedddbfgcff": 1072,
      "na": 1073,
      "aihfedddd": 1074,
      "ifbddd": 1075,
      "ju": 1076,
      "ks": 1077,
      "bu": 1078,
      "ffgg": 1079,
      "qh": 1080,
      "iebddd": 1081,
      "ms": 1082,
      "cu": 1083,
      "fdg": 1084,
      "eghe": 1085,
      "mY": 1086,
      "qe": 1087,
      "Hddd": 1088,
      "of": 1089,
      "cce": 1090,
      "bedbedbde": 1091,
      "gs": 1092,
      "dt": 1093,
      "bfgbfe": 1094,
      "dY": 1095,
      "dgh": 1096,
      "bfdbedbee": 1097,
      "ds": 1098,
      "hu": 1099,
      "lY": 1100,
      "qi": 1101,
      "jX": 1102,
      "Iddd": 1103,
      "jv": 1104,
      "gfcddd": 1105,
      "hedddd": 1106,
      "ffge": 1107,
      "aihf": 1108,
      "eX": 1109,
      "gecddd": 1110,
      "beebeebee": 1111,
      "dddbgh": 1112,
      "yddd": 1113,
      "Eddd": 1114,
      "rg": 1115,
      "bv": 1116,
      "Gddd": 1117,
      "pf": 1118,
      "nc": 1119,
      "kt": 1120,
      "qr": 1121,
      "ffj": 1122,
      "aehbef": 1123,
      "eY": 1124,
      "dddafg": 1125,
      "Zf": 1126,
      "aX": 1127,
      "mt": 1128,
      "lt": 1129,
      "lX": 1130,
      "gdddd": 1131,
      "op": 1132,
      "ihg": 1133,
      "kX": 1134,
      "pp": 1135,
      "lZ": 1136,
      "eedddd": 1137,
      "sn": 1138,
      "bfgcee": 1139,
      "ffffeg": 1140,
      "zddd": 1141,
      "mZ": 1142,
      "dddbgg": 1143,
      "qj": 1144,
      "bW": 1145,
      "fdh": 1146,
      "sg": 1147,
      "lu": 1148,
      "rp": 1149,
      "chf": 1150,
      "ku": 1151,
      "bihgeddddbegcff": 1152,
      "dX": 1153,
      "eedddafg": 1154,
      "Ze": 1155,
      "rn": 1156,
      "fef": 1157,
      "aigf": 1158,
      "Zh": 1159,
      "ccddd": 1160,
      "eee": 1161,
      "sm": 1162,
      "iv": 1163,
      "qf": 1164,
      "du": 1165,
      "acf": 1166,
      "eu": 1167,
      "iX": 1168,
      "ffgfeh": 1169,
      "dddH": 1170,
      "aec": 1171,
      "dehh": 1172,
      "Yg": 1173,
      "cv": 1174,
      "oa": 1175,
      "or": 1176,
      "aei": 1177,
      "chi": 1178,
      "iu": 1179,
      "fgge": 1180,
      "ehhhecddd": 1181,
      "Cddd": 1182,
      "deg": 1183,
      "bhhgedddd": 1184,
      "rl": 1185,
      "bx": 1186,
      "vp": 1187,
      "bigf": 1188,
      "bihgeedddbfgcff": 1189,
      "befehh": 1190,
      "qZ": 1191,
      "hebddd": 1192,
      "dddddafh": 1193,
      "ehhhfcddd": 1194,
      "Fddd": 1195,
      "Dddd": 1196,
      "tn": 1197,
      "gY": 1198,
      "gu": 1199,
      "ddee": 1200,
      "bbe": 1201,
      "aV": 1202,
      "sr": 1203,
      "iW": 1204,
      "pq": 1205,
      "Zn": 1206,
      "cx": 1207,
      "fghfgh": 1208,
      "gt": 1209,
      "cw": 1210,
      "oq": 1211,
      "Zr": 1212,
      "pu": 1213,
      "cedceecee": 1214,
      "fw": 1215,
      "bdee": 1216,
      "ghh": 1217,
      "jV": 1218,
      "cfecfe": 1219,
      "mX": 1220,
      "dddcfh": 1221,
      "bV": 1222,
      "av": 1223,
      "kW": 1224,
      "bcg": 1225,
      "eW": 1226,
      "pt": 1227,
      "eedddafh": 1228,
      "ax": 1229,
      "bw": 1230,
      "hv": 1231,
      "fW": 1232,
      "cehh": 1233,
      "ahhgedddd": 1234,
      "aehbff": 1235,
      "Yl": 1236,
      "aw": 1237,
      "ev": 1238,
      "Zc": 1239,
      "fV": 1240,
      "qt": 1241,
      "ajhg": 1242,
      "rk": 1243,
      "hW": 1244,
      "dddE": 1245,
      "Zk": 1246,
      "fggffh": 1247,
      "bhd": 1248,
      "bfgcfecfd": 1249,
      "bihi": 1250,
      "ns": 1251,
      "Zp": 1252,
      "gfhg": 1253,
      "aigfedddd": 1254,
      "Xg": 1255,
      "dw": 1256,
      "Yk": 1257,
      "lW": 1258,
      "qs": 1259,
      "dddG": 1260,
      "Yr": 1261,
      "bedbdd": 1262,
      "Zj": 1263,
      "os": 1264,
      "mV": 1265,
      "iw": 1266,
      "Yj": 1267,
      "cW": 1268,
      "fx": 1269,
      "bhgg": 1270,
      "oZ": 1271,
      "bjhh": 1272,
      "re": 1273,
      "iV": 1274,
      "qq": 1275,
      "bihhedddd": 1276,
      "afi": 1277,
      "fv": 1278,
      "afgbff": 1279,
      "bfi": 1280,
      "ob": 1281,
      "chd": 1282,
      "gfj": 1283,
      "bjgg": 1284,
      "{`": 1285,
      "befc": 1286,
      "ffhg": 1287,
      "dv": 1288,
      "ffhh": 1289,
      "bji": 1290,
      "aW": 1291,
      "nX": 1292,
      "fdi": 1293,
      "mu": 1294,
      "ehhif": 1295,
      "fegh": 1296,
      "Yt": 1297,
      "bigfedddd": 1298,
      "rt": 1299,
      "dddD": 1300,
      "kV": 1301,
      "by": 1302,
      "cU": 1303,
      "hw": 1304,
      "ov": 1305,
      "ps": 1306,
      "gX": 1307,
      "gW": 1308,
      "qX": 1309,
      "dW": 1310,
      "sk": 1311,
      "dddB": 1312,
      "pc": 1313,
      "xu": 1314,
      "^{": 1315,
      "nu": 1316,
      "rj": 1317,
      "mv": 1318,
      "fffffgfeh": 1319,
      "gv": 1320,
      "oX": 1321,
      "ot": 1322,
      "rh": 1323,
      "cegd": 1324,
      "Yu": 1325,
      "_{": 1326,
      "bz": 1327,
      "`{": 1328,
      "dU": 1329,
      "dhi": 1330,
      "^|": 1331,
      "ew": 1332,
      "rs": 1333,
      "bfhbff": 1334,
      "ccd": 1335,
      "nt": 1336,
      "ri": 1337,
      "Zt": 1338,
      "Zl": 1339,
      "bei": 1340,
      "Yh": 1341,
      "Zm": 1342,
      "ghg": 1343,
      "dddC": 1344,
      "fU": 1345,
      "dfh": 1346,
      "qu": 1347,
      "si": 1348,
      "Yi": 1349,
      "acd": 1350,
      "pa": 1351,
      "dddcgg": 1352,
      "pr": 1353,
      "ehhie": 1354,
      "ffgffgffh": 1355,
      "oY": 1356,
      "afdafd": 1357,
      "ru": 1358,
      "hy": 1359,
      "mW": 1360,
      "nb": 1361,
      "qW": 1362,
      "pX": 1363,
      "qa": 1364,
      "fdcddd": 1365,
      "st": 1366,
      "fgedddd": 1367,
      "_|": 1368,
      "nZ": 1369,
      "fej": 1370,
      "hx": 1371,
      "ti": 1372,
      "aji": 1373,
      "pZ": 1374,
      "tk": 1375,
      "jW": 1376,
      "qc": 1377,
      "dhe": 1378,
      "jw": 1379,
      "cefd": 1380,
      "ou": 1381,
      "ceddd": 1382,
      "rr": 1383,
      "cV": 1384,
      "dddF": 1385,
      "ly": 1386,
      "eV": 1387,
      "lv": 1388,
      "aihgeddddbfgcfe": 1389,
      "dx": 1390,
      "adddd": 1391,
      "dy": 1392,
      "dfddd": 1393,
      "UX": 1394,
      "lw": 1395,
      "Uu": 1396,
      "ahf": 1397,
      "fge": 1398,
      "pY": 1399,
      "cfecfd": 1400,
      "gcddd": 1401,
      "ahe": 1402,
      "hV": 1403,
      "dgd": 1404,
      "begbff": 1405,
      "az": 1406,
      "mw": 1407,
      "rq": 1408,
      "cy": 1409,
      "fehg": 1410,
      "nY": 1411,
      "gw": 1412,
      "rf": 1413,
      "Xi": 1414,
      "UW": 1415,
      "`|": 1416,
      "mx": 1417,
      "tt": 1418,
      "`~": 1419,
      "dz": 1420,
      "dbddd": 1421,
      "bbf": 1422,
      "aedaee": 1423,
      "oV": 1424,
      "lV": 1425,
      "nv": 1426,
      "jx": 1427,
      "my": 1428,
      "nV": 1429,
      "qY": 1430,
      "sp": 1431,
      "Zu": 1432,
      "tu": 1433,
      "bT": 1434,
      "kv": 1435,
      "ss": 1436,
      "hgcddd": 1437,
      "sj": 1438,
      "bhj": 1439,
      "agc": 1440,
      "bedbeebeeehh": 1441,
      "iz": 1442,
      "gV": 1443,
      "Addd": 1444,
      "nW": 1445,
      "dddagh": 1446,
      "pv": 1447,
      "cih": 1448,
      "lT": 1449,
      "gei": 1450,
      "ky": 1451,
      "oW": 1452,
      "aU": 1453,
      "ZX": 1454,
      "]{": 1455,
      "bU": 1456,
      "_}": 1457,
      "ex": 1458,
      "kz": 1459,
      "qv": 1460,
      "su": 1461,
      "rm": 1462,
      "dV": 1463,
      "igg": 1464,
      "]|": 1465,
      "Bddd": 1466,
      "Xu": 1467,
      "acg": 1468,
      "wt": 1469,
      "hU": 1470,
      "befd": 1471,
      "ifhh": 1472,
      "fhifgh": 1473,
      "~`": 1474,
      "Ye": 1475,
      "Zv": 1476,
      "dS": 1477,
      "iU": 1478,
      "dddddafg": 1479,
      "dddA": 1480,
      "fggg": 1481,
      "jU": 1482,
      "lU": 1483,
      "ahgg": 1484,
      "Yf": 1485,
      "kw": 1486,
      "qV": 1487,
      "ts": 1488,
      "ehhhecdddfgifgh": 1489,
      "dT": 1490,
      "ccf": 1491,
      "`}": 1492,
      "\\{": 1493,
      "cgh": 1494,
      "Ā}": 1495,
      "ay": 1496,
      "pW": 1497,
      "afeafe": 1498,
      "lx": 1499,
      "YX": 1500,
      "aihffdddd": 1501,
      "cT": 1502,
      "ZZ": 1503,
      "tj": 1504,
      "]}": 1505,
      "Xe": 1506,
      "bR": 1507,
      "beebde": 1508,
      "[{": 1509,
      "kx": 1510,
      "sh": 1511,
      "fedddbfg": 1512,
      "nT": 1513,
      "rv": 1514,
      "dddbff": 1515,
      "\\|": 1516,
      "begd": 1517,
      "fy": 1518,
      "gz": 1519,
      "biggfdddd": 1520,
      "mT": 1521,
      "tp": 1522,
      "[|": 1523,
      "cz": 1524,
      "fz": 1525,
      "lz": 1526,
      "th": 1527,
      "eef": 1528,
      "aiggeddddbfgcfe": 1529,
      "ox": 1530,
      "aT": 1531,
      "eT": 1532,
      "gx": 1533,
      "rY": 1534,
      "sv": 1535,
      "^}": 1536,
      "agi": 1537,
      "wX": 1538,
      "iS": 1539,
      "jT": 1540,
      "nx": 1541,
      "ffffg": 1542,
      "bdh": 1543,
      "Wh": 1544,
      "fS": 1545,
      "jS": 1546,
      "pw": 1547,
      "Yv": 1548,
      "]Ā": 1549,
      "qy": 1550,
      "oU": 1551,
      "egj": 1552,
      "kT": 1553,
      "cffbedbeebee": 1554,
      "_~": 1555,
      "bdc": 1556,
      "jy": 1557,
      "oc": 1558,
      "rX": 1559,
      "ehhhfcdddfgifgh": 1560,
      "YZ": 1561,
      "{^": 1562,
      "sl": 1563,
      "wp": 1564,
      "YW": 1565,
      "sW": 1566,
      "]~": 1567,
      "hT": 1568,
      "tv": 1569,
      "ffeddd": 1570,
      "tm": 1571,
      "Yd": 1572,
      "eU": 1573,
      "fT": 1574,
      "nz": 1575,
      "qx": 1576,
      "ffddd": 1577,
      "_ġ": 1578,
      "tg": 1579,
      "sw": 1580,
      "dddddbfh": 1581,
      "wv": 1582,
      "ÂĢĀ": 1583,
      "Wm": 1584,
      "Xm": 1585,
      "aihi": 1586,
      "Yc": 1587,
      "bgi": 1588,
      "qU": 1589,
      "}_": 1590,
      "qw": 1591,
      "Ru": 1592,
      "Xl": 1593,
      "Yo": 1594,
      "ny": 1595,
      "vk": 1596,
      "{_": 1597,
      "Vt": 1598,
      "\\ÂĢ": 1599,
      "ceebee": 1600,
      "ddddde": 1601,
      "Wu": 1602,
      "pb": 1603,
      "Xr": 1604,
      "hgdddd": 1605,
      "Xh": 1606,
      "Ym": 1607,
      "cedbeebee": 1608,
      "hdcddd": 1609,
      "nU": 1610,
      "Ā\\": 1611,
      "rZ": 1612,
      "Ā_": 1613,
      "gy": 1614,
      "ws": 1615,
      "`ġ": 1616,
      "bfebef": 1617,
      "Xj": 1618,
      "Xk": 1619,
      "\\}": 1620,
      "[~": 1621,
      "ifdddd": 1622,
      "Yn": 1623,
      "cS": 1624,
      "oz": 1625,
      "bihgecddd": 1626,
      "px": 1627,
      "eeff": 1628,
      "bihe": 1629,
      "[}": 1630,
      "qb": 1631,
      "uj": 1632,
      "ix": 1633,
      "ġĀ": 1634,
      "ÂĤĀ": 1635,
      "^Ā": 1636,
      "uk": 1637,
      "gfh": 1638,
      "iy": 1639,
      "wr": 1640,
      "ajgg": 1641,
      "un": 1642,
      "bhc": 1643,
      "begbef": 1644,
      "sd": 1645,
      "ĀÂĥ": 1646,
      "|`": 1647,
      "~_": 1648,
      "ey": 1649,
      "sZ": 1650,
      "|]": 1651,
      "efddd": 1652,
      "Wg": 1653,
      "Ya": 1654,
      "deh": 1655,
      "bfdbed": 1656,
      "{]": 1657,
      "mU": 1658,
      "vl": 1659,
      "YV": 1660,
      "Yw": 1661,
      "rV": 1662,
      "uh": 1663,
      "vj": 1664,
      "|^": 1665,
      "ded": 1666,
      "|\\": 1667,
      "ggdddd": 1668,
      "fegfeh": 1669,
      "Wk": 1670,
      "tq": 1671,
      "ug": 1672,
      "mz": 1673,
      "bjhgedddd": 1674,
      "Wv": 1675,
      "behh": 1676,
      "hfi": 1677,
      "adh": 1678,
      "sf": 1679,
      "vn": 1680,
      "bfgcef": 1681,
      "bdeehh": 1682,
      "ow": 1683,
      "^ġ": 1684,
      "sU": 1685,
      "sV": 1686,
      "tZ": 1687,
      "hgj": 1688,
      "]ġ": 1689,
      "sq": 1690,
      "Wo": 1691,
      "rc": 1692,
      "dedddbfh": 1693,
      "Tv": 1694,
      "Ww": 1695,
      "^~": 1696,
      "mR": 1697,
      "Vj": 1698,
      "uo": 1699,
      "Ā|": 1700,
      "cfecee": 1701,
      "Yx": 1702,
      "iR": 1703,
      "]ÂĢ": 1704,
      "rU": 1705,
      "ul": 1706,
      "ut": 1707,
      "\\ġ": 1708,
      "hhe": 1709,
      "Xp": 1710,
      "Sv": 1711,
      "Wj": 1712,
      "nw": 1713,
      "fgdddd": 1714,
      "{[": 1715,
      "fggfg": 1716,
      "eghhecddd": 1717,
      "up": 1718,
      "_Âģ": 1719,
      "Zw": 1720,
      "hz": 1721,
      "bihhfdddd": 1722,
      "_ÂĢ": 1723,
      "bbg": 1724,
      "}]": 1725,
      "cR": 1726,
      "eej": 1727,
      "eedddc": 1728,
      "Xv": 1729,
      "gT": 1730,
      "ur": 1731,
      "igcddd": 1732,
      "cfdcfd": 1733,
      "Ā@": 1734,
      "Za": 1735,
      "ahj": 1736,
      "ĀÂĩ": 1737,
      "fii": 1738,
      "cie": 1739,
      "rb": 1740,
      "ege": 1741,
      "Āġ": 1742,
      "hfj": 1743,
      "bihgeddddbfh": 1744,
      "beebeebdf": 1745,
      "fff": 1746,
      "bfee": 1747,
      "Wp": 1748,
      "Xa": 1749,
      "Zq": 1750,
      "^Âģ": 1751,
      "Vv": 1752,
      "Xf": 1753,
      "rd": 1754,
      "sY": 1755,
      "se": 1756,
      "ġ`": 1757,
      "Wn": 1758,
      "gej": 1759,
      "bihgeedddbfhcff": 1760,
      "Ve": 1761,
      "sc": 1762,
      "bfebfebef": 1763,
      "Wi": 1764,
      "fehi": 1765,
      "biggeedddbfgcfe": 1766,
      "Yy": 1767,
      "SU": 1768,
      "cdh": 1769,
      "Wt": 1770,
      "Xo": 1771,
      "ajhh": 1772,
      "abf": 1773,
      "Xx": 1774,
      "gU": 1775,
      "Ā]": 1776,
      "eghhfcddd": 1777,
      "~^": 1778,
      "ĀÂĵ": 1779,
      "dgi": 1780,
      "ZV": 1781,
      "sx": 1782,
      "wo": 1783,
      "cedbedcee": 1784,
      "kU": 1785,
      "ddfe": 1786,
      "bif": 1787,
      "bcddd": 1788,
      "Vi": 1789,
      "Qv": 1790,
      "fdf": 1791,
      "fggffgffh": 1792,
      "chc": 1793,
      "cedcde": 1794,
      "lS": 1795,
      "zw": 1796,
      "Zy": 1797,
      "bP": 1798,
      "dded": 1799,
      "hdddd": 1800,
      "bfebff": 1801,
      "bfebfebee": 1802,
      "sX": 1803,
      "}[": 1804,
      "ĀÂĤ": 1805,
      "zv": 1806,
      "^ÂĤ": 1807,
      "tf": 1808,
      "wj": 1809,
      "Ā`": 1810,
      "We": 1811,
      "sy": 1812,
      "ĀÂį": 1813,
      "fedddbfgcfe": 1814,
      "sa": 1815,
      "Su": 1816,
      "Wd": 1817,
      "qT": 1818,
      "te": 1819,
      "tr": 1820,
      "cii": 1821,
      "Sx": 1822,
      "Vn": 1823,
      "Wx": 1824,
      "kR": 1825,
      "Xd": 1826,
      "}`": 1827,
      "Wr": 1828,
      "wn": 1829,
      "|_": 1830,
      "cjg": 1831,
      "Wy": 1832,
      "ghk": 1833,
      "{Ā": 1834,
      "Yb": 1835,
      "abe": 1836,
      "dddddb": 1837,
      "Vr": 1838,
      "\\Ā": 1839,
      "tl": 1840,
      "}^": 1841,
      "aihgeddddbfhcff": 1842,
      "\\~": 1843,
      "mQ": 1844,
      "egfefg": 1845,
      "ggiffh": 1846,
      "cedcedcde": 1847,
      "aihhedddd": 1848,
      "PÃĪ": 1849,
      "bfdcee": 1850,
      "aP": 1851,
      "tY": 1852,
      "ĀÂģ": 1853,
      "afhcff": 1854,
      "Wl": 1855,
      "\\Âģ": 1856,
      "uu": 1857,
      "qQ": 1858,
      "Vh": 1859,
      "Vg": 1860,
      "pU": 1861,
      "fhie": 1862,
      "Ty": 1863,
      "Vf": 1864,
      "`Âģ": 1865,
      "|[": 1866,
      "hhi": 1867,
      "hhj": 1868,
      "hgi": 1869,
      "bfgcge": 1870,
      "fij": 1871,
      "Vo": 1872,
      "ġ_": 1873,
      "jecddd": 1874,
      "qz": 1875,
      "Ā~": 1876,
      "]Âģ": 1877,
      "Ā:": 1878,
      "Ue": 1879,
      "ry": 1880,
      "vu": 1881,
      "aihe": 1882,
      "Sg": 1883,
      "jz": 1884,
      "wg": 1885,
      "Ā;": 1886,
      "Vu": 1887,
      "ccdd": 1888,
      "aiggeddddafgbfe": 1889,
      "To": 1890,
      "xi": 1891,
      "fQ": 1892,
      "lÃĪ": 1893,
      "tW": 1894,
      "ffgffg": 1895,
      "aiggfdddd": 1896,
      "cedbeecee": 1897,
      "RU": 1898,
      "cif": 1899,
      "mS": 1900,
      "wk": 1901,
      "ZT": 1902,
      "Zb": 1903,
      "bihgeddddbegcfe": 1904,
      "Zx": 1905,
      "ehj": 1906,
      "Vk": 1907,
      "}\\": 1908,
      "efe": 1909,
      "hÃĪ": 1910,
      "~]": 1911,
      "ĀÂĢ": 1912,
      "dfi": 1913,
      "Ui": 1914,
      "\\ÂĤ": 1915,
      "bQ": 1916,
      "ddh": 1917,
      "ffffegfeh": 1918,
      "Tg": 1919,
      "ww": 1920,
      "=Ā": 1921,
      "bS": 1922,
      "to": 1923,
      "gfbddd": 1924,
      "yl": 1925,
      "ffgh": 1926,
      "cdee": 1927,
      "hhg": 1928,
      "ggk": 1929,
      "Pv": 1930,
      "ud": 1931,
      "ĀÂĪ": 1932,
      "ddfc": 1933,
      ">Ā": 1934,
      "LÃĪ": 1935,
      "Yp": 1936,
      "cQ": 1937,
      "rx": 1938,
      "~[": 1939,
      "ggig": 1940,
      "cfee": 1941,
      "fÃĪ": 1942,
      "Uh": 1943,
      "Yz": 1944,
      "Rk": 1945,
      "Vq": 1946,
      "sz": 1947,
      "uv": 1948,
      "xg": 1949,
      "Yq": 1950,
      "aS": 1951,
      "ÂĩĀ": 1952,
      "Vp": 1953,
      "yv": 1954,
      "bihgeddddbegcef": 1955,
      "QÃĪ": 1956,
      "Âģ_": 1957,
      "Rx": 1958,
      "Tn": 1959,
      "Uv": 1960,
      "dei": 1961,
      "_ÂĤ": 1962,
      "ÂĥĀ": 1963,
      "dÃĪ": 1964,
      "uq": 1965,
      "geh": 1966,
      "aihgeeddd": 1967,
      "Vw": 1968,
      "ui": 1969,
      "bedbeebef": 1970,
      "jQ": 1971,
      "ddfd": 1972,
      "begbfe": 1973,
      "bedbeecee": 1974,
      "bddbde": 1975,
      "`ÂĦ": 1976,
      "td": 1977,
      "Xn": 1978,
      "ux": 1979,
      "ġ]": 1980,
      "Tl": 1981,
      "`ÂĤ": 1982,
      "tw": 1983,
      "ĀÂİ": 1984,
      "eghj": 1985,
      "eghie": 1986,
      "Ud": 1987,
      "yn": 1988,
      "XW": 1989,
      "ĀÂĲ": 1990,
      "hS": 1991,
      "kP": 1992,
      "oy": 1993,
      "cei": 1994,
      "bhggedddd": 1995,
      "Ur": 1996,
      "ahd": 1997,
      "vg": 1998,
      "ĀÂĦ": 1999,
      "begbee": 2000,
      "Ys": 2001,
      "dhf": 2002,
      "gfg": 2003,
      "Tm": 2004,
      "eghif": 2005,
      "]ÂĤ": 2006,
      "wi": 2007,
      "um": 2008,
      "xm": 2009,
      "biig": 2010,
      "fhk": 2011,
      "afgcfe": 2012,
      "tx": 2013,
      "bihgfddddbfgcfe": 2014,
      "dddddafhbff": 2015,
      "chj": 2016,
      "ĀÂĳ": 2017,
      "Sz": 2018,
      "vt": 2019,
      "hei": 2020,
      "yr": 2021,
      "cP": 2022,
      "Uq": 2023,
      "jR": 2024,
      "ĀÂĭ": 2025,
      "behc": 2026,
      "ÂĢ]": 2027,
      "geddd": 2028,
      "Zs": 2029,
      "us": 2030,
      "Si": 2031,
      "^Âĥ": 2032,
      "ÃĪM": 2033,
      "aihgeddddafhbff": 2034,
      "[ġ": 2035,
      "aO": 2036,
      "fR": 2037,
      "[ÂĢ": 2038,
      "`Âĥ": 2039,
      "py": 2040,
      "xo": 2041,
      "Xq": 2042,
      "cfi": 2043,
      "Vm": 2044,
      "aQ": 2045,
      "ez": 2046,
      "tb": 2047
    },
    "merges": [
      [
        "d",
        "d"
      ],
      [
        "dd",
        "d"
      ],
      [
        "f",
        "f"
      ],
      [
        "e",
        "e"
      ],
      [
        "f",
        "g"
      ],
      [
        "h",
        "h"
      ],
      [
        "f",
        "e"
      ],
      [
        "dd",
        "dd"
      ],
      [
        "b",
        "e"
      ],
      [
        "Ã",
        "Ī"
      ],
      [
        "h",
        "g"
      ],
      [
        "b",
        "ee"
      ],
      [
        "b",
        "i"
      ],
      [
        "g",
        "g"
      ],
      [
        "c",
        "ddd"
      ],
      [
        "f",
        "d"
      ],
      [
        "e",
        "dddd"
      ],
      [
        "c",
        "e"
      ],
      [
        "a",
        "i"
      ],
      [
        "be",
        "d"
      ],
      [
        "f",
        "h"
      ],
      [
        "b",
        "fg"
      ],
      [
        "e",
        "g"
      ],
      [
        "Â",
        "Ģ"
      ],
      [
        "Â",
        "ģ"
      ],
      [
        "Â",
        "Ĥ"
      ],
      [
        "d",
        "e"
      ],
      [
        "c",
        "ff"
      ],
      [
        "Â",
        "ĥ"
      ],
      [
        "h",
        "f"
      ],
      [
        "Â",
        "Ħ"
      ],
      [
        "bi",
        "hg"
      ],
      [
        "Â",
        "ħ"
      ],
      [
        "Â",
        "Ĩ"
      ],
      [
        "e",
        "hh"
      ],
      [
        "Â",
        "ĩ"
      ],
      [
        "fg",
        "h"
      ],
      [
        "bed",
        "bee"
      ],
      [
        "Â",
        "Ī"
      ],
      [
        "fg",
        "i"
      ],
      [
        "Â",
        "ī"
      ],
      [
        "g",
        "e"
      ],
      [
        "ff",
        "h"
      ],
      [
        "c",
        "ee"
      ],
      [
        "Â",
        "Ĭ"
      ],
      [
        "c",
        "fe"
      ],
      [
        "h",
        "i"
      ],
      [
        "g",
        "f"
      ],
      [
        "Â",
        "ĭ"
      ],
      [
        "b",
        "ddd"
      ],
      [
        "b",
        "fe"
      ],
      [
        "bihg",
        "edddd"
      ],
      [
        "Â",
        "Į"
      ],
      [
        "Â",
        "į"
      ],
      [
        "Â",
        "İ"
      ],
      [
        "h",
        "e"
      ],
      [
        "Â",
        "ı"
      ],
      [
        "b",
        "fd"
      ],
      [
        "Â",
        "Ĳ"
      ],
      [
        "d",
        "f"
      ],
      [
        "Â",
        "ĳ"
      ],
      [
        "g",
        "h"
      ],
      [
        "a",
        "e"
      ],
      [
        "cddd",
        "fgi"
      ],
      [
        "ff",
        "ff"
      ],
      [
        "Â",
        "Ĵ"
      ],
      [
        "bedbee",
        "bee"
      ],
      [
        "bfg",
        "cff"
      ],
      [
        "ddd",
        "b"
      ],
      [
        "Â",
        "ĵ"
      ],
      [
        "Â",
        "Ķ"
      ],
      [
        "ddd",
        "a"
      ],
      [
        "Â",
        "ķ"
      ],
      [
        "Â",
        "ĸ"
      ],
      [
        "f",
        "c"
      ],
      [
        "b",
        "j"
      ],
      [
        "g",
        "d"
      ],
      [
        "Â",
        "Ĺ"
      ],
      [
        "ce",
        "d"
      ],
      [
        "cdddfgi",
        "fgh"
      ],
      [
        "be",
        "g"
      ],
      [
        "ffff",
        "fg"
      ],
      [
        "Â",
        "ĺ"
      ],
      [
        "f",
        "i"
      ],
      [
        "d",
        "g"
      ],
      [
        "Â",
        "ļ"
      ],
      [
        "Â",
        "Ļ"
      ],
      [
        "ddd",
        "c"
      ],
      [
        "b",
        "ff"
      ],
      [
        "ai",
        "hg"
      ],
      [
        "ehh",
        "hf"
      ],
      [
        "Â",
        "Ľ"
      ],
      [
        "bihgedddd",
        "bfgcff"
      ],
      [
        "Â",
        "ľ"
      ],
      [
        "i",
        "e"
      ],
      [
        "fffffg",
        "ffh"
      ],
      [
        "Â",
        "Ŀ"
      ],
      [
        "a",
        "j"
      ],
      [
        "cdddfgifgh",
        "fffffgffh"
      ],
      [
        "i",
        "g"
      ],
      [
        "Â",
        "ŀ"
      ],
      [
        "bihgeddddbfgcff",
        "bedbeebee"
      ],
      [
        "Â",
        "Ł"
      ],
      [
        "c",
        "g"
      ],
      [
        "be",
        "f"
      ],
      [
        "c",
        "d"
      ],
      [
        "ehhhf",
        "cdddfgifghfffffgffh"
      ],
      [
        "Â",
        "ł"
      ],
      [
        "c",
        "fd"
      ],
      [
        "bihgeddddbfgcffbedbeebee",
        "ehhhfcdddfgifghfffffgffh"
      ],
      [
        "Â",
        "¡"
      ],
      [
        "b",
        "d"
      ],
      [
        "ee",
        "ddd"
      ],
      [
        "h",
        "d"
      ],
      [
        "i",
        "f"
      ],
      [
        "Â",
        "¢"
      ],
      [
        "c",
        "f"
      ],
      [
        "Â",
        "£"
      ],
      [
        "Â",
        "¤"
      ],
      [
        "a",
        "ddd"
      ],
      [
        "g",
        "i"
      ],
      [
        "c",
        "i"
      ],
      [
        "b",
        "de"
      ],
      [
        "ff",
        "g"
      ],
      [
        "ce",
        "f"
      ],
      [
        "h",
        "j"
      ],
      [
        "bfg",
        "cfe"
      ],
      [
        "Â",
        "¥"
      ],
      [
        "Â",
        "¦"
      ],
      [
        "bee",
        "bee"
      ],
      [
        "bi",
        "gg"
      ],
      [
        "ddd",
        "e"
      ],
      [
        "b",
        "g"
      ],
      [
        "Â",
        "§"
      ],
      [
        "c",
        "j"
      ],
      [
        "f",
        "dddd"
      ],
      [
        "Â",
        "¨"
      ],
      [
        "Â",
        "©"
      ],
      [
        "h",
        "c"
      ],
      [
        "Â",
        "ª"
      ],
      [
        "Â",
        "«"
      ],
      [
        "b",
        "f"
      ],
      [
        "j",
        "e"
      ],
      [
        "Â",
        "¬"
      ],
      [
        "i",
        "i"
      ],
      [
        "Ā",
        "Ā"
      ],
      [
        "c",
        "c"
      ],
      [
        "Â",
        "®"
      ],
      [
        "Â",
        "Ń"
      ],
      [
        "e",
        "f"
      ],
      [
        "ÃĪ",
        "ddd"
      ],
      [
        "aihg",
        "edddd"
      ],
      [
        "a",
        "ee"
      ],
      [
        "Â",
        "¯"
      ],
      [
        "b",
        "fh"
      ],
      [
        "ÃĪ",
        "ÃĪ"
      ],
      [
        "h",
        "k"
      ],
      [
        "a",
        "d"
      ],
      [
        "dd",
        "ddd"
      ],
      [
        "Â",
        "°"
      ],
      [
        "bi",
        "h"
      ],
      [
        "a",
        "g"
      ],
      [
        "ai",
        "gg"
      ],
      [
        "j",
        "g"
      ],
      [
        "a",
        "hh"
      ],
      [
        "Â",
        "²"
      ],
      [
        "ai",
        "h"
      ],
      [
        "fg",
        "g"
      ],
      [
        "f",
        "j"
      ],
      [
        "d",
        "i"
      ],
      [
        "Â",
        "±"
      ],
      [
        "b",
        "hh"
      ],
      [
        "ddd",
        "g"
      ],
      [
        "e",
        "i"
      ],
      [
        "b",
        "k"
      ],
      [
        "Â",
        "³"
      ],
      [
        "bi",
        "g"
      ],
      [
        "e",
        "ddd"
      ],
      [
        "Â",
        "´"
      ],
      [
        "c",
        "h"
      ],
      [
        "c",
        "de"
      ],
      [
        "e",
        "h"
      ],
      [
        "f",
        "hh"
      ],
      [
        "Â",
        "µ"
      ],
      [
        "ddd",
        "i"
      ],
      [
        "fe",
        "dddd"
      ],
      [
        "ddd",
        "f"
      ],
      [
        "be",
        "h"
      ],
      [
        "c",
        "k"
      ],
      [
        "e",
        "d"
      ],
      [
        "Â",
        "·"
      ],
      [
        "ddd",
        "j"
      ],
      [
        "eg",
        "h"
      ],
      [
        "i",
        "h"
      ],
      [
        "ddd",
        "k"
      ],
      [
        "fe",
        "h"
      ],
      [
        "i",
        "d"
      ],
      [
        "dddb",
        "fh"
      ],
      [
        "Â",
        "¶"
      ],
      [
        "a",
        "k"
      ],
      [
        "ddd",
        "l"
      ],
      [
        "b",
        "h"
      ],
      [
        "j",
        "d"
      ],
      [
        "Â",
        "¸"
      ],
      [
        "Â",
        "¹"
      ],
      [
        "c",
        "b"
      ],
      [
        "a",
        "f"
      ],
      [
        "ddd",
        "h"
      ],
      [
        "a",
        "fe"
      ],
      [
        "Â",
        "º"
      ],
      [
        "bfe",
        "bee"
      ],
      [
        "a",
        "fg"
      ],
      [
        "d",
        "h"
      ],
      [
        "ai",
        "g"
      ],
      [
        "b",
        "df"
      ],
      [
        "gg",
        "i"
      ],
      [
        "b",
        "hg"
      ],
      [
        "j",
        "j"
      ],
      [
        "c",
        "ge"
      ],
      [
        "Â",
        "»"
      ],
      [
        "ddd",
        "m"
      ],
      [
        "e",
        "gg"
      ],
      [
        "j",
        "i"
      ],
      [
        "j",
        "f"
      ],
      [
        "bigg",
        "edddd"
      ],
      [
        "Â",
        "½"
      ],
      [
        "a",
        "fh"
      ],
      [
        "Â",
        "¼"
      ],
      [
        "ddd",
        "n"
      ],
      [
        "l",
        "g"
      ],
      [
        "a",
        "h"
      ],
      [
        "k",
        "g"
      ],
      [
        "k",
        "e"
      ],
      [
        "eg",
        "hh"
      ],
      [
        "a",
        "hg"
      ],
      [
        "Â",
        "¾"
      ],
      [
        "f",
        "ddd"
      ],
      [
        "c",
        "l"
      ],
      [
        "a",
        "fd"
      ],
      [
        "j",
        "h"
      ],
      [
        "a",
        "eg"
      ],
      [
        "fe",
        "g"
      ],
      [
        "Â",
        "¿"
      ],
      [
        "bed",
        "bedbee"
      ],
      [
        "fh",
        "i"
      ],
      [
        "e",
        "cddd"
      ],
      [
        "ae",
        "h"
      ],
      [
        "bfd",
        "bee"
      ],
      [
        "b",
        "l"
      ],
      [
        "Ã",
        "Ģ"
      ],
      [
        "b",
        "ge"
      ],
      [
        "ddd",
        "o"
      ],
      [
        "Ã",
        "ģ"
      ],
      [
        "fe",
        "ddd"
      ],
      [
        "bi",
        "hh"
      ],
      [
        "f",
        "k"
      ],
      [
        "b",
        "c"
      ],
      [
        "j",
        "k"
      ],
      [
        "ddd",
        "Z"
      ],
      [
        "ced",
        "cee"
      ],
      [
        "Ã",
        "ĥ"
      ],
      [
        "ce",
        "g"
      ],
      [
        "e",
        "fg"
      ],
      [
        "b",
        "dd"
      ],
      [
        "ff",
        "i"
      ],
      [
        "k",
        "i"
      ],
      [
        "a",
        "l"
      ],
      [
        "d",
        "j"
      ],
      [
        "`",
        "`"
      ],
      [
        "Ã",
        "Ĥ"
      ],
      [
        "b",
        "m"
      ],
      [
        "e",
        "hg"
      ],
      [
        "g",
        "edddd"
      ],
      [
        "e",
        "j"
      ],
      [
        "g",
        "j"
      ],
      [
        "c",
        "a"
      ],
      [
        "ae",
        "d"
      ],
      [
        "k",
        "d"
      ],
      [
        "ae",
        "f"
      ],
      [
        "c",
        "m"
      ],
      [
        "f",
        "cddd"
      ],
      [
        "ddd",
        "q"
      ],
      [
        "ee",
        "g"
      ],
      [
        "b",
        "b"
      ],
      [
        "Ã",
        "Ħ"
      ],
      [
        "ddd",
        "Y"
      ],
      [
        "i",
        "j"
      ],
      [
        "ddd",
        "p"
      ],
      [
        "e",
        "fh"
      ],
      [
        "Ã",
        "ħ"
      ],
      [
        "c",
        "dddd"
      ],
      [
        "bfh",
        "cff"
      ],
      [
        "h",
        "l"
      ],
      [
        "c",
        "gf"
      ],
      [
        "ddd",
        "X"
      ],
      [
        "d",
        "k"
      ],
      [
        "a",
        "m"
      ],
      [
        "f",
        "l"
      ],
      [
        "Ã",
        "Ĩ"
      ],
      [
        "aigg",
        "edddd"
      ],
      [
        "ddd",
        "s"
      ],
      [
        "ddd",
        "ÃĪ"
      ],
      [
        "e",
        "hi"
      ],
      [
        "Ã",
        "ĩ"
      ],
      [
        "i",
        "k"
      ],
      [
        "b",
        "a"
      ],
      [
        "`",
        "_"
      ],
      [
        "e",
        "k"
      ],
      [
        "bed",
        "bed"
      ],
      [
        "c",
        "df"
      ],
      [
        "g",
        "k"
      ],
      [
        "bddd",
        "fgi"
      ],
      [
        "a",
        "ff"
      ],
      [
        "ddd",
        "r"
      ],
      [
        "fg",
        "ff"
      ],
      [
        "ddd",
        "V"
      ],
      [
        "ddd",
        "W"
      ],
      [
        "b",
        "gf"
      ],
      [
        "j",
        "l"
      ],
      [
        "e",
        "c"
      ],
      [
        "_",
        "`"
      ],
      [
        "b",
        "n"
      ],
      [
        "c",
        "fg"
      ],
      [
        "g",
        "c"
      ],
      [
        "i",
        "l"
      ],
      [
        "f",
        "m"
      ],
      [
        "a",
        "de"
      ],
      [
        "ddd",
        "t"
      ],
      [
        "beg",
        "cee"
      ],
      [
        "d",
        "l"
      ],
      [
        "h",
        "a"
      ],
      [
        "c",
        "n"
      ],
      [
        "ee",
        "ddda"
      ],
      [
        "ehh",
        "he"
      ],
      [
        "e",
        "l"
      ],
      [
        "h",
        "m"
      ],
      [
        "k",
        "j"
      ],
      [
        "d",
        "fe"
      ],
      [
        "ai",
        "hh"
      ],
      [
        "g",
        "l"
      ],
      [
        "^",
        "`"
      ],
      [
        "a",
        "n"
      ],
      [
        "k",
        "k"
      ],
      [
        "ddd",
        "U"
      ],
      [
        "i",
        "c"
      ],
      [
        "ddd",
        "u"
      ],
      [
        "beg",
        "cfe"
      ],
      [
        "h",
        "b"
      ],
      [
        "bfe",
        "bfe"
      ],
      [
        "_",
        "_"
      ],
      [
        "i",
        "m"
      ],
      [
        "f",
        "b"
      ],
      [
        "ffg",
        "ffh"
      ],
      [
        "ddd",
        "T"
      ],
      [
        "ddd",
        "v"
      ],
      [
        "fe",
        "hh"
      ],
      [
        "ff",
        "dddd"
      ],
      [
        "b",
        "fc"
      ],
      [
        "f",
        "a"
      ],
      [
        "e",
        "m"
      ],
      [
        "^",
        "_"
      ],
      [
        "c",
        "fc"
      ],
      [
        "c",
        "dd"
      ],
      [
        "j",
        "m"
      ],
      [
        "h",
        "n"
      ],
      [
        "k",
        "l"
      ],
      [
        "e",
        "ff"
      ],
      [
        "a",
        "a"
      ],
      [
        "eg",
        "i"
      ],
      [
        "b",
        "o"
      ],
      [
        "de",
        "ddd"
      ],
      [
        "dd",
        "ddda"
      ],
      [
        "f",
        "n"
      ],
      [
        "`",
        "^"
      ],
      [
        "b",
        "gd"
      ],
      [
        "ddd",
        "S"
      ],
      [
        "d",
        "m"
      ],
      [
        "k",
        "m"
      ],
      [
        "g",
        "m"
      ],
      [
        "l",
        "l"
      ],
      [
        "d",
        "ff"
      ],
      [
        "g",
        "b"
      ],
      [
        "ee",
        "dddbfh"
      ],
      [
        "ddd",
        "Q"
      ],
      [
        "ddd",
        "x"
      ],
      [
        "d",
        "c"
      ],
      [
        "ee",
        "h"
      ],
      [
        "k",
        "h"
      ],
      [
        "gf",
        "dddd"
      ],
      [
        "i",
        "a"
      ],
      [
        "ddd",
        "w"
      ],
      [
        "i",
        "b"
      ],
      [
        "bihg",
        "eeddd"
      ],
      [
        "j",
        "c"
      ],
      [
        "b",
        "hi"
      ],
      [
        "g",
        "a"
      ],
      [
        "bfd",
        "bfebee"
      ],
      [
        "]",
        "`"
      ],
      [
        "_",
        "^"
      ],
      [
        "fe",
        "i"
      ],
      [
        "c",
        "gd"
      ],
      [
        "beg",
        "cff"
      ],
      [
        "hf",
        "cddd"
      ],
      [
        "g",
        "n"
      ],
      [
        "ddd",
        "P"
      ],
      [
        "b",
        "ce"
      ],
      [
        "bihg",
        "fdddd"
      ],
      [
        "l",
        "d"
      ],
      [
        "j",
        "n"
      ],
      [
        "o",
        "m"
      ],
      [
        "l",
        "i"
      ],
      [
        "Z",
        "ddd"
      ],
      [
        "^",
        "^"
      ],
      [
        "l",
        "k"
      ],
      [
        "f",
        "hg"
      ],
      [
        "j",
        "b"
      ],
      [
        "e",
        "b"
      ],
      [
        "bi",
        "i"
      ],
      [
        "a",
        "c"
      ],
      [
        "ddd",
        "R"
      ],
      [
        "eg",
        "hi"
      ],
      [
        "e",
        "n"
      ],
      [
        "`",
        "]"
      ],
      [
        "bj",
        "h"
      ],
      [
        "k",
        "f"
      ],
      [
        "i",
        "n"
      ],
      [
        "ddd",
        "z"
      ],
      [
        "e",
        "a"
      ],
      [
        "j",
        "a"
      ],
      [
        "l",
        "m"
      ],
      [
        "]",
        "_"
      ],
      [
        "b",
        "dg"
      ],
      [
        "l",
        "h"
      ],
      [
        "cee",
        "cee"
      ],
      [
        "\\",
        "`"
      ],
      [
        "d",
        "hh"
      ],
      [
        "a",
        "df"
      ],
      [
        "ddd",
        "y"
      ],
      [
        "p",
        "m"
      ],
      [
        "b",
        "gg"
      ],
      [
        "f",
        "o"
      ],
      [
        "l",
        "e"
      ],
      [
        "g",
        "ddd"
      ],
      [
        "d",
        "n"
      ],
      [
        "d",
        "a"
      ],
      [
        "l",
        "j"
      ],
      [
        "d",
        "b"
      ],
      [
        "h",
        "o"
      ],
      [
        "k",
        "n"
      ],
      [
        "ee",
        "hh"
      ],
      [
        "_",
        "]"
      ],
      [
        "bfd",
        "bfdbee"
      ],
      [
        "he",
        "cddd"
      ],
      [
        "p",
        "n"
      ],
      [
        "c",
        "o"
      ],
      [
        "ddd",
        "O"
      ],
      [
        "be",
        "c"
      ],
      [
        "l",
        "n"
      ],
      [
        "\\",
        "_"
      ],
      [
        "ai",
        "i"
      ],
      [
        "a",
        "b"
      ],
      [
        "e",
        "o"
      ],
      [
        "d",
        "ee"
      ],
      [
        "fgff",
        "fg"
      ],
      [
        "hg",
        "edddd"
      ],
      [
        "ddd",
        "N"
      ],
      [
        "`",
        "\\"
      ],
      [
        "]",
        "^"
      ],
      [
        "g",
        "o"
      ],
      [
        "k",
        "c"
      ],
      [
        "i",
        "o"
      ],
      [
        "h",
        "ddd"
      ],
      [
        "a",
        "hi"
      ],
      [
        "\\",
        "^"
      ],
      [
        "j",
        "o"
      ],
      [
        "f",
        "p"
      ],
      [
        "bj",
        "g"
      ],
      [
        "m",
        "g"
      ],
      [
        "a",
        "o"
      ],
      [
        "ce",
        "c"
      ],
      [
        "i",
        "ddd"
      ],
      [
        "bfd",
        "bfd"
      ],
      [
        "c",
        "p"
      ],
      [
        "b",
        "p"
      ],
      [
        "eeddd",
        "bfg"
      ],
      [
        "Y",
        "ddd"
      ],
      [
        "j",
        "ddd"
      ],
      [
        "d",
        "o"
      ],
      [
        "aihg",
        "fdddd"
      ],
      [
        "dddc",
        "fg"
      ],
      [
        "ie",
        "cddd"
      ],
      [
        "m",
        "k"
      ],
      [
        "m",
        "e"
      ],
      [
        "l",
        "f"
      ],
      [
        "X",
        "ddd"
      ],
      [
        "a",
        "p"
      ],
      [
        "m",
        "i"
      ],
      [
        "^",
        "]"
      ],
      [
        "l",
        "o"
      ],
      [
        "q",
        "n"
      ],
      [
        "[",
        "`"
      ],
      [
        "V",
        "ddd"
      ],
      [
        "beh",
        "cef"
      ],
      [
        "_",
        "\\"
      ],
      [
        "bihgedddd",
        "bfhcff"
      ],
      [
        "q",
        "m"
      ],
      [
        "U",
        "ddd"
      ],
      [
        "W",
        "ddd"
      ],
      [
        "d",
        "cddd"
      ],
      [
        "h",
        "p"
      ],
      [
        "beg",
        "cef"
      ],
      [
        "k",
        "a"
      ],
      [
        "m",
        "j"
      ],
      [
        "]",
        "]"
      ],
      [
        "bfd",
        "beebee"
      ],
      [
        "l",
        "c"
      ],
      [
        "if",
        "cddd"
      ],
      [
        "f",
        "bddd"
      ],
      [
        "[",
        "^"
      ],
      [
        "hf",
        "dddd"
      ],
      [
        "j",
        "p"
      ],
      [
        "m",
        "n"
      ],
      [
        "a",
        "ge"
      ],
      [
        "ddd",
        "L"
      ],
      [
        "[",
        "_"
      ],
      [
        "q",
        "o"
      ],
      [
        "k",
        "b"
      ],
      [
        "d",
        "ge"
      ],
      [
        "]",
        "\\"
      ],
      [
        "m",
        "l"
      ],
      [
        "dd",
        "e"
      ],
      [
        "`",
        "["
      ],
      [
        "d",
        "p"
      ],
      [
        "biggedddd",
        "bfgcfe"
      ],
      [
        "m",
        "f"
      ],
      [
        "^",
        "\\"
      ],
      [
        "k",
        "o"
      ],
      [
        "m",
        "m"
      ],
      [
        "ddd",
        "M"
      ],
      [
        "r",
        "o"
      ],
      [
        "n",
        "g"
      ],
      [
        "gg",
        "j"
      ],
      [
        "f",
        "ee"
      ],
      [
        "l",
        "a"
      ],
      [
        "eeddd",
        "bfgcfe"
      ],
      [
        "gf",
        "i"
      ],
      [
        "q",
        "p"
      ],
      [
        "bi",
        "gh"
      ],
      [
        "g",
        "hi"
      ],
      [
        "m",
        "o"
      ],
      [
        "m",
        "d"
      ],
      [
        "g",
        "p"
      ],
      [
        "afh",
        "bff"
      ],
      [
        "bihgedddd",
        "bfgcfe"
      ],
      [
        "\\",
        "]"
      ],
      [
        "k",
        "ddd"
      ],
      [
        "h",
        "r"
      ],
      [
        "k",
        "p"
      ],
      [
        "fd",
        "e"
      ],
      [
        "c",
        "gg"
      ],
      [
        "cfd",
        "cee"
      ],
      [
        "e",
        "p"
      ],
      [
        "i",
        "p"
      ],
      [
        "^",
        "["
      ],
      [
        "n",
        "j"
      ],
      [
        "ced",
        "bee"
      ],
      [
        "T",
        "ddd"
      ],
      [
        "_",
        "["
      ],
      [
        "l",
        "ddd"
      ],
      [
        "R",
        "ddd"
      ],
      [
        "bdddfgi",
        "fgh"
      ],
      [
        "m",
        "h"
      ],
      [
        "fg",
        "j"
      ],
      [
        "n",
        "e"
      ],
      [
        "S",
        "ddd"
      ],
      [
        "n",
        "l"
      ],
      [
        "n",
        "k"
      ],
      [
        "fe",
        "fg"
      ],
      [
        "fe",
        "ff"
      ],
      [
        "l",
        "b"
      ],
      [
        "n",
        "i"
      ],
      [
        "fe",
        "cddd"
      ],
      [
        "f",
        "q"
      ],
      [
        "n",
        "d"
      ],
      [
        "m",
        "ddd"
      ],
      [
        "c",
        "q"
      ],
      [
        "h",
        "q"
      ],
      [
        "e",
        "bddd"
      ],
      [
        "n",
        "o"
      ],
      [
        "]",
        "["
      ],
      [
        "b",
        "r"
      ],
      [
        "n",
        "h"
      ],
      [
        "o",
        "g"
      ],
      [
        "f",
        "r"
      ],
      [
        "c",
        "r"
      ],
      [
        "j",
        "q"
      ],
      [
        "[",
        "\\"
      ],
      [
        "ee",
        "dddb"
      ],
      [
        "n",
        "p"
      ],
      [
        "a",
        "gg"
      ],
      [
        "l",
        "p"
      ],
      [
        "b",
        "q"
      ],
      [
        "bfd",
        "bfe"
      ],
      [
        "fg",
        "hh"
      ],
      [
        "ddd",
        "J"
      ],
      [
        "s",
        "o"
      ],
      [
        "\\",
        "\\"
      ],
      [
        "afg",
        "bfe"
      ],
      [
        "fg",
        "hg"
      ],
      [
        "b",
        "dddd"
      ],
      [
        "Z",
        "o"
      ],
      [
        "a",
        "dg"
      ],
      [
        "cdddfgi",
        "ffh"
      ],
      [
        "[",
        "]"
      ],
      [
        "c",
        "hg"
      ],
      [
        "fh",
        "j"
      ],
      [
        "ced",
        "ced"
      ],
      [
        "aj",
        "h"
      ],
      [
        "n",
        "m"
      ],
      [
        "e",
        "q"
      ],
      [
        "gg",
        "h"
      ],
      [
        "P",
        "ddd"
      ],
      [
        "a",
        "gd"
      ],
      [
        "b",
        "cf"
      ],
      [
        "beebee",
        "bef"
      ],
      [
        "Q",
        "ddd"
      ],
      [
        "p",
        "k"
      ],
      [
        "O",
        "ddd"
      ],
      [
        "o",
        "d"
      ],
      [
        "i",
        "q"
      ],
      [
        "i",
        "r"
      ],
      [
        "a",
        "q"
      ],
      [
        "beh",
        "cff"
      ],
      [
        "f",
        "s"
      ],
      [
        "a",
        "fc"
      ],
      [
        "k",
        "q"
      ],
      [
        "bfg",
        "bff"
      ],
      [
        "ce",
        "h"
      ],
      [
        "\\",
        "["
      ],
      [
        "a",
        "r"
      ],
      [
        "d",
        "hg"
      ],
      [
        "d",
        "gg"
      ],
      [
        "l",
        "q"
      ],
      [
        "n",
        "n"
      ],
      [
        "j",
        "r"
      ],
      [
        "p",
        "g"
      ],
      [
        "l",
        "r"
      ],
      [
        "ff",
        "e"
      ],
      [
        "c",
        "hh"
      ],
      [
        "a",
        "gf"
      ],
      [
        "e",
        "Z"
      ],
      [
        "aj",
        "g"
      ],
      [
        "ee",
        "i"
      ],
      [
        "ÃĪddd",
        "ÃĪ"
      ],
      [
        "b",
        "s"
      ],
      [
        "j",
        "Z"
      ],
      [
        "ggi",
        "fgh"
      ],
      [
        "gg",
        "edddd"
      ],
      [
        "ce",
        "fc"
      ],
      [
        "h",
        "Z"
      ],
      [
        "b",
        "he"
      ],
      [
        "b",
        "Z"
      ],
      [
        "n",
        "q"
      ],
      [
        "d",
        "q"
      ],
      [
        "e",
        "r"
      ],
      [
        "c",
        "Z"
      ],
      [
        "f",
        "t"
      ],
      [
        "j",
        "s"
      ],
      [
        "fe",
        "gg"
      ],
      [
        "n",
        "ddd"
      ],
      [
        "ddd",
        "I"
      ],
      [
        "p",
        "o"
      ],
      [
        "k",
        "r"
      ],
      [
        "bhh",
        "g"
      ],
      [
        "c",
        "s"
      ],
      [
        "g",
        "q"
      ],
      [
        "a",
        "Z"
      ],
      [
        "c",
        "he"
      ],
      [
        "de",
        "f"
      ],
      [
        "eedddbfh",
        "cff"
      ],
      [
        "p",
        "ddd"
      ],
      [
        "a",
        "dd"
      ],
      [
        "t",
        "ddd"
      ],
      [
        "o",
        "l"
      ],
      [
        "M",
        "ddd"
      ],
      [
        "o",
        "i"
      ],
      [
        "p",
        "h"
      ],
      [
        "[",
        "["
      ],
      [
        "o",
        "k"
      ],
      [
        "aee",
        "aee"
      ],
      [
        "o",
        "e"
      ],
      [
        "dd",
        "f"
      ],
      [
        "ddda",
        "fh"
      ],
      [
        "p",
        "j"
      ],
      [
        "u",
        "ddd"
      ],
      [
        "a",
        "ce"
      ],
      [
        "N",
        "ddd"
      ],
      [
        "f",
        "Z"
      ],
      [
        "s",
        "ddd"
      ],
      [
        "p",
        "e"
      ],
      [
        "bedbee",
        "bde"
      ],
      [
        "bed",
        "bde"
      ],
      [
        "p",
        "d"
      ],
      [
        "ig",
        "edddd"
      ],
      [
        "a",
        "s"
      ],
      [
        "cfd",
        "cfe"
      ],
      [
        "m",
        "c"
      ],
      [
        "L",
        "ddd"
      ],
      [
        "K",
        "ddd"
      ],
      [
        "fgfffg",
        "ffh"
      ],
      [
        "q",
        "ddd"
      ],
      [
        "o",
        "h"
      ],
      [
        "p",
        "i"
      ],
      [
        "g",
        "r"
      ],
      [
        "gh",
        "j"
      ],
      [
        "d",
        "r"
      ],
      [
        "b",
        "gh"
      ],
      [
        "q",
        "k"
      ],
      [
        "p",
        "l"
      ],
      [
        "d",
        "fg"
      ],
      [
        "w",
        "ddd"
      ],
      [
        "c",
        "dg"
      ],
      [
        "beebee",
        "be"
      ],
      [
        "a",
        "t"
      ],
      [
        "c",
        "t"
      ],
      [
        "o",
        "j"
      ],
      [
        "b",
        "hf"
      ],
      [
        "g",
        "Z"
      ],
      [
        "n",
        "f"
      ],
      [
        "b",
        "Y"
      ],
      [
        "ff",
        "cddd"
      ],
      [
        "c",
        "Y"
      ],
      [
        "b",
        "t"
      ],
      [
        "bee",
        "bef"
      ],
      [
        "eghh",
        "e"
      ],
      [
        "i",
        "Z"
      ],
      [
        "i",
        "s"
      ],
      [
        "h",
        "t"
      ],
      [
        "d",
        "Z"
      ],
      [
        "e",
        "fi"
      ],
      [
        "o",
        "o"
      ],
      [
        "e",
        "s"
      ],
      [
        "bj",
        "hg"
      ],
      [
        "k",
        "Z"
      ],
      [
        "m",
        "a"
      ],
      [
        "aihgedddd",
        "bfgcff"
      ],
      [
        "m",
        "p"
      ],
      [
        "h",
        "s"
      ],
      [
        "ahh",
        "g"
      ],
      [
        "e",
        "t"
      ],
      [
        "hf",
        "bddd"
      ],
      [
        "o",
        "n"
      ],
      [
        "m",
        "r"
      ],
      [
        "m",
        "q"
      ],
      [
        "o",
        "ddd"
      ],
      [
        "h",
        "X"
      ],
      [
        "a",
        "u"
      ],
      [
        "a",
        "Y"
      ],
      [
        "q",
        "l"
      ],
      [
        "cg",
        "c"
      ],
      [
        "gg",
        "g"
      ],
      [
        "bed",
        "cee"
      ],
      [
        "b",
        "X"
      ],
      [
        "bg",
        "c"
      ],
      [
        "q",
        "g"
      ],
      [
        "f",
        "X"
      ],
      [
        "r",
        "ddd"
      ],
      [
        "eghh",
        "f"
      ],
      [
        "Z",
        "i"
      ],
      [
        "eg",
        "hg"
      ],
      [
        "ced",
        "cedcee"
      ],
      [
        "d",
        "gf"
      ],
      [
        "q",
        "d"
      ],
      [
        "ddd",
        "K"
      ],
      [
        "ff",
        "fg"
      ],
      [
        "j",
        "Y"
      ],
      [
        "dd",
        "g"
      ],
      [
        "bih",
        "fedddd"
      ],
      [
        "k",
        "Y"
      ],
      [
        "h",
        "Y"
      ],
      [
        "d",
        "fd"
      ],
      [
        "j",
        "t"
      ],
      [
        "f",
        "Y"
      ],
      [
        "x",
        "ddd"
      ],
      [
        "i",
        "t"
      ],
      [
        "b",
        "cd"
      ],
      [
        "l",
        "s"
      ],
      [
        "c",
        "ig"
      ],
      [
        "bi",
        "hf"
      ],
      [
        "c",
        "fh"
      ],
      [
        "gg",
        "hg"
      ],
      [
        "v",
        "ddd"
      ],
      [
        "c",
        "X"
      ],
      [
        "i",
        "Y"
      ],
      [
        "m",
        "b"
      ],
      [
        "n",
        "r"
      ],
      [
        "a",
        "gh"
      ],
      [
        "f",
        "u"
      ],
      [
        "dddbfh",
        "cff"
      ],
      [
        "Z",
        "d"
      ],
      [
        "Z",
        "g"
      ],
      [
        "ai",
        "gh"
      ],
      [
        "J",
        "ddd"
      ],
      [
        "eeddd",
        "bfgcff"
      ],
      [
        "n",
        "a"
      ],
      [
        "aih",
        "fedddd"
      ],
      [
        "if",
        "bddd"
      ],
      [
        "j",
        "u"
      ],
      [
        "k",
        "s"
      ],
      [
        "b",
        "u"
      ],
      [
        "ff",
        "gg"
      ],
      [
        "q",
        "h"
      ],
      [
        "ie",
        "bddd"
      ],
      [
        "m",
        "s"
      ],
      [
        "c",
        "u"
      ],
      [
        "fd",
        "g"
      ],
      [
        "eg",
        "he"
      ],
      [
        "m",
        "Y"
      ],
      [
        "q",
        "e"
      ],
      [
        "H",
        "ddd"
      ],
      [
        "o",
        "f"
      ],
      [
        "c",
        "ce"
      ],
      [
        "bedbed",
        "bde"
      ],
      [
        "g",
        "s"
      ],
      [
        "d",
        "t"
      ],
      [
        "bfg",
        "bfe"
      ],
      [
        "d",
        "Y"
      ],
      [
        "d",
        "gh"
      ],
      [
        "bfd",
        "bedbee"
      ],
      [
        "d",
        "s"
      ],
      [
        "h",
        "u"
      ],
      [
        "l",
        "Y"
      ],
      [
        "q",
        "i"
      ],
      [
        "j",
        "X"
      ],
      [
        "I",
        "ddd"
      ],
      [
        "j",
        "v"
      ],
      [
        "gf",
        "cddd"
      ],
      [
        "h",
        "edddd"
      ],
      [
        "ff",
        "ge"
      ],
      [
        "ai",
        "hf"
      ],
      [
        "e",
        "X"
      ],
      [
        "ge",
        "cddd"
      ],
      [
        "beebee",
        "bee"
      ],
      [
        "dddb",
        "gh"
      ],
      [
        "y",
        "ddd"
      ],
      [
        "E",
        "ddd"
      ],
      [
        "r",
        "g"
      ],
      [
        "b",
        "v"
      ],
      [
        "G",
        "ddd"
      ],
      [
        "p",
        "f"
      ],
      [
        "n",
        "c"
      ],
      [
        "k",
        "t"
      ],
      [
        "q",
        "r"
      ],
      [
        "ff",
        "j"
      ],
      [
        "aeh",
        "bef"
      ],
      [
        "e",
        "Y"
      ],
      [
        "ddda",
        "fg"
      ],
      [
        "Z",
        "f"
      ],
      [
        "a",
        "X"
      ],
      [
        "m",
        "t"
      ],
      [
        "l",
        "t"
      ],
      [
        "l",
        "X"
      ],
      [
        "g",
        "dddd"
      ],
      [
        "o",
        "p"
      ],
      [
        "i",
        "hg"
      ],
      [
        "k",
        "X"
      ],
      [
        "p",
        "p"
      ],
      [
        "l",
        "Z"
      ],
      [
        "ee",
        "dddd"
      ],
      [
        "s",
        "n"
      ],
      [
        "bfg",
        "cee"
      ],
      [
        "ffff",
        "eg"
      ],
      [
        "z",
        "ddd"
      ],
      [
        "m",
        "Z"
      ],
      [
        "dddb",
        "gg"
      ],
      [
        "q",
        "j"
      ],
      [
        "b",
        "W"
      ],
      [
        "fd",
        "h"
      ],
      [
        "s",
        "g"
      ],
      [
        "l",
        "u"
      ],
      [
        "r",
        "p"
      ],
      [
        "c",
        "hf"
      ],
      [
        "k",
        "u"
      ],
      [
        "bihgedddd",
        "begcff"
      ],
      [
        "d",
        "X"
      ],
      [
        "eeddda",
        "fg"
      ],
      [
        "Z",
        "e"
      ],
      [
        "r",
        "n"
      ],
      [
        "fe",
        "f"
      ],
      [
        "ai",
        "gf"
      ],
      [
        "Z",
        "h"
      ],
      [
        "c",
        "cddd"
      ],
      [
        "ee",
        "e"
      ],
      [
        "s",
        "m"
      ],
      [
        "i",
        "v"
      ],
      [
        "q",
        "f"
      ],
      [
        "d",
        "u"
      ],
      [
        "a",
        "cf"
      ],
      [
        "e",
        "u"
      ],
      [
        "i",
        "X"
      ],
      [
        "ffg",
        "feh"
      ],
      [
        "ddd",
        "H"
      ],
      [
        "ae",
        "c"
      ],
      [
        "de",
        "hh"
      ],
      [
        "Y",
        "g"
      ],
      [
        "c",
        "v"
      ],
      [
        "o",
        "a"
      ],
      [
        "o",
        "r"
      ],
      [
        "ae",
        "i"
      ],
      [
        "c",
        "hi"
      ],
      [
        "i",
        "u"
      ],
      [
        "fg",
        "ge"
      ],
      [
        "ehhhe",
        "cddd"
      ],
      [
        "C",
        "ddd"
      ],
      [
        "d",
        "eg"
      ],
      [
        "bhh",
        "gedddd"
      ],
      [
        "r",
        "l"
      ],
      [
        "b",
        "x"
      ],
      [
        "v",
        "p"
      ],
      [
        "bi",
        "gf"
      ],
      [
        "bihgeeddd",
        "bfgcff"
      ],
      [
        "be",
        "fehh"
      ],
      [
        "q",
        "Z"
      ],
      [
        "he",
        "bddd"
      ],
      [
        "ddddda",
        "fh"
      ],
      [
        "ehhhf",
        "cddd"
      ],
      [
        "F",
        "ddd"
      ],
      [
        "D",
        "ddd"
      ],
      [
        "t",
        "n"
      ],
      [
        "g",
        "Y"
      ],
      [
        "g",
        "u"
      ],
      [
        "dd",
        "ee"
      ],
      [
        "b",
        "be"
      ],
      [
        "a",
        "V"
      ],
      [
        "s",
        "r"
      ],
      [
        "i",
        "W"
      ],
      [
        "p",
        "q"
      ],
      [
        "Z",
        "n"
      ],
      [
        "c",
        "x"
      ],
      [
        "fgh",
        "fgh"
      ],
      [
        "g",
        "t"
      ],
      [
        "c",
        "w"
      ],
      [
        "o",
        "q"
      ],
      [
        "Z",
        "r"
      ],
      [
        "p",
        "u"
      ],
      [
        "cedcee",
        "cee"
      ],
      [
        "f",
        "w"
      ],
      [
        "bd",
        "ee"
      ],
      [
        "g",
        "hh"
      ],
      [
        "j",
        "V"
      ],
      [
        "cfe",
        "cfe"
      ],
      [
        "m",
        "X"
      ],
      [
        "dddc",
        "fh"
      ],
      [
        "b",
        "V"
      ],
      [
        "a",
        "v"
      ],
      [
        "k",
        "W"
      ],
      [
        "b",
        "cg"
      ],
      [
        "e",
        "W"
      ],
      [
        "p",
        "t"
      ],
      [
        "eeddda",
        "fh"
      ],
      [
        "a",
        "x"
      ],
      [
        "b",
        "w"
      ],
      [
        "h",
        "v"
      ],
      [
        "f",
        "W"
      ],
      [
        "ce",
        "hh"
      ],
      [
        "ahh",
        "gedddd"
      ],
      [
        "aeh",
        "bff"
      ],
      [
        "Y",
        "l"
      ],
      [
        "a",
        "w"
      ],
      [
        "e",
        "v"
      ],
      [
        "Z",
        "c"
      ],
      [
        "f",
        "V"
      ],
      [
        "q",
        "t"
      ],
      [
        "aj",
        "hg"
      ],
      [
        "r",
        "k"
      ],
      [
        "h",
        "W"
      ],
      [
        "ddd",
        "E"
      ],
      [
        "Z",
        "k"
      ],
      [
        "fgg",
        "ffh"
      ],
      [
        "b",
        "hd"
      ],
      [
        "bfgcfe",
        "cfd"
      ],
      [
        "bi",
        "hi"
      ],
      [
        "n",
        "s"
      ],
      [
        "Z",
        "p"
      ],
      [
        "gf",
        "hg"
      ],
      [
        "aig",
        "fedddd"
      ],
      [
        "X",
        "g"
      ],
      [
        "d",
        "w"
      ],
      [
        "Y",
        "k"
      ],
      [
        "l",
        "W"
      ],
      [
        "q",
        "s"
      ],
      [
        "ddd",
        "G"
      ],
      [
        "Y",
        "r"
      ],
      [
        "bed",
        "bdd"
      ],
      [
        "Z",
        "j"
      ],
      [
        "o",
        "s"
      ],
      [
        "m",
        "V"
      ],
      [
        "i",
        "w"
      ],
      [
        "Y",
        "j"
      ],
      [
        "c",
        "W"
      ],
      [
        "f",
        "x"
      ],
      [
        "bhg",
        "g"
      ],
      [
        "o",
        "Z"
      ],
      [
        "bj",
        "hh"
      ],
      [
        "r",
        "e"
      ],
      [
        "i",
        "V"
      ],
      [
        "q",
        "q"
      ],
      [
        "bihh",
        "edddd"
      ],
      [
        "a",
        "fi"
      ],
      [
        "f",
        "v"
      ],
      [
        "afg",
        "bff"
      ],
      [
        "b",
        "fi"
      ],
      [
        "o",
        "b"
      ],
      [
        "c",
        "hd"
      ],
      [
        "gf",
        "j"
      ],
      [
        "bj",
        "gg"
      ],
      [
        "{",
        "`"
      ],
      [
        "be",
        "fc"
      ],
      [
        "ff",
        "hg"
      ],
      [
        "d",
        "v"
      ],
      [
        "ff",
        "hh"
      ],
      [
        "bj",
        "i"
      ],
      [
        "a",
        "W"
      ],
      [
        "n",
        "X"
      ],
      [
        "fd",
        "i"
      ],
      [
        "m",
        "u"
      ],
      [
        "ehh",
        "if"
      ],
      [
        "fe",
        "gh"
      ],
      [
        "Y",
        "t"
      ],
      [
        "big",
        "fedddd"
      ],
      [
        "r",
        "t"
      ],
      [
        "ddd",
        "D"
      ],
      [
        "k",
        "V"
      ],
      [
        "b",
        "y"
      ],
      [
        "c",
        "U"
      ],
      [
        "h",
        "w"
      ],
      [
        "o",
        "v"
      ],
      [
        "p",
        "s"
      ],
      [
        "g",
        "X"
      ],
      [
        "g",
        "W"
      ],
      [
        "q",
        "X"
      ],
      [
        "d",
        "W"
      ],
      [
        "s",
        "k"
      ],
      [
        "ddd",
        "B"
      ],
      [
        "p",
        "c"
      ],
      [
        "x",
        "u"
      ],
      [
        "^",
        "{"
      ],
      [
        "n",
        "u"
      ],
      [
        "r",
        "j"
      ],
      [
        "m",
        "v"
      ],
      [
        "fffffg",
        "feh"
      ],
      [
        "g",
        "v"
      ],
      [
        "o",
        "X"
      ],
      [
        "o",
        "t"
      ],
      [
        "r",
        "h"
      ],
      [
        "ce",
        "gd"
      ],
      [
        "Y",
        "u"
      ],
      [
        "_",
        "{"
      ],
      [
        "b",
        "z"
      ],
      [
        "`",
        "{"
      ],
      [
        "d",
        "U"
      ],
      [
        "d",
        "hi"
      ],
      [
        "^",
        "|"
      ],
      [
        "e",
        "w"
      ],
      [
        "r",
        "s"
      ],
      [
        "bfh",
        "bff"
      ],
      [
        "c",
        "cd"
      ],
      [
        "n",
        "t"
      ],
      [
        "r",
        "i"
      ],
      [
        "Z",
        "t"
      ],
      [
        "Z",
        "l"
      ],
      [
        "be",
        "i"
      ],
      [
        "Y",
        "h"
      ],
      [
        "Z",
        "m"
      ],
      [
        "g",
        "hg"
      ],
      [
        "ddd",
        "C"
      ],
      [
        "f",
        "U"
      ],
      [
        "d",
        "fh"
      ],
      [
        "q",
        "u"
      ],
      [
        "s",
        "i"
      ],
      [
        "Y",
        "i"
      ],
      [
        "a",
        "cd"
      ],
      [
        "p",
        "a"
      ],
      [
        "dddc",
        "gg"
      ],
      [
        "p",
        "r"
      ],
      [
        "ehh",
        "ie"
      ],
      [
        "ffg",
        "ffgffh"
      ],
      [
        "o",
        "Y"
      ],
      [
        "afd",
        "afd"
      ],
      [
        "r",
        "u"
      ],
      [
        "h",
        "y"
      ],
      [
        "m",
        "W"
      ],
      [
        "n",
        "b"
      ],
      [
        "q",
        "W"
      ],
      [
        "p",
        "X"
      ],
      [
        "q",
        "a"
      ],
      [
        "fd",
        "cddd"
      ],
      [
        "s",
        "t"
      ],
      [
        "fg",
        "edddd"
      ],
      [
        "_",
        "|"
      ],
      [
        "n",
        "Z"
      ],
      [
        "fe",
        "j"
      ],
      [
        "h",
        "x"
      ],
      [
        "t",
        "i"
      ],
      [
        "aj",
        "i"
      ],
      [
        "p",
        "Z"
      ],
      [
        "t",
        "k"
      ],
      [
        "j",
        "W"
      ],
      [
        "q",
        "c"
      ],
      [
        "d",
        "he"
      ],
      [
        "j",
        "w"
      ],
      [
        "ce",
        "fd"
      ],
      [
        "o",
        "u"
      ],
      [
        "ce",
        "ddd"
      ],
      [
        "r",
        "r"
      ],
      [
        "c",
        "V"
      ],
      [
        "ddd",
        "F"
      ],
      [
        "l",
        "y"
      ],
      [
        "e",
        "V"
      ],
      [
        "l",
        "v"
      ],
      [
        "aihgedddd",
        "bfgcfe"
      ],
      [
        "d",
        "x"
      ],
      [
        "a",
        "dddd"
      ],
      [
        "d",
        "y"
      ],
      [
        "df",
        "ddd"
      ],
      [
        "U",
        "X"
      ],
      [
        "l",
        "w"
      ],
      [
        "U",
        "u"
      ],
      [
        "a",
        "hf"
      ],
      [
        "fg",
        "e"
      ],
      [
        "p",
        "Y"
      ],
      [
        "cfe",
        "cfd"
      ],
      [
        "g",
        "cddd"
      ],
      [
        "a",
        "he"
      ],
      [
        "h",
        "V"
      ],
      [
        "d",
        "gd"
      ],
      [
        "beg",
        "bff"
      ],
      [
        "a",
        "z"
      ],
      [
        "m",
        "w"
      ],
      [
        "r",
        "q"
      ],
      [
        "c",
        "y"
      ],
      [
        "fe",
        "hg"
      ],
      [
        "n",
        "Y"
      ],
      [
        "g",
        "w"
      ],
      [
        "r",
        "f"
      ],
      [
        "X",
        "i"
      ],
      [
        "U",
        "W"
      ],
      [
        "`",
        "|"
      ],
      [
        "m",
        "x"
      ],
      [
        "t",
        "t"
      ],
      [
        "`",
        "~"
      ],
      [
        "d",
        "z"
      ],
      [
        "d",
        "bddd"
      ],
      [
        "b",
        "bf"
      ],
      [
        "aed",
        "aee"
      ],
      [
        "o",
        "V"
      ],
      [
        "l",
        "V"
      ],
      [
        "n",
        "v"
      ],
      [
        "j",
        "x"
      ],
      [
        "m",
        "y"
      ],
      [
        "n",
        "V"
      ],
      [
        "q",
        "Y"
      ],
      [
        "s",
        "p"
      ],
      [
        "Z",
        "u"
      ],
      [
        "t",
        "u"
      ],
      [
        "b",
        "T"
      ],
      [
        "k",
        "v"
      ],
      [
        "s",
        "s"
      ],
      [
        "hg",
        "cddd"
      ],
      [
        "s",
        "j"
      ],
      [
        "b",
        "hj"
      ],
      [
        "ag",
        "c"
      ],
      [
        "bedbeebee",
        "ehh"
      ],
      [
        "i",
        "z"
      ],
      [
        "g",
        "V"
      ],
      [
        "A",
        "ddd"
      ],
      [
        "n",
        "W"
      ],
      [
        "ddda",
        "gh"
      ],
      [
        "p",
        "v"
      ],
      [
        "ci",
        "h"
      ],
      [
        "l",
        "T"
      ],
      [
        "ge",
        "i"
      ],
      [
        "k",
        "y"
      ],
      [
        "o",
        "W"
      ],
      [
        "a",
        "U"
      ],
      [
        "Z",
        "X"
      ],
      [
        "]",
        "{"
      ],
      [
        "b",
        "U"
      ],
      [
        "_",
        "}"
      ],
      [
        "e",
        "x"
      ],
      [
        "k",
        "z"
      ],
      [
        "q",
        "v"
      ],
      [
        "s",
        "u"
      ],
      [
        "r",
        "m"
      ],
      [
        "d",
        "V"
      ],
      [
        "i",
        "gg"
      ],
      [
        "]",
        "|"
      ],
      [
        "B",
        "ddd"
      ],
      [
        "X",
        "u"
      ],
      [
        "a",
        "cg"
      ],
      [
        "w",
        "t"
      ],
      [
        "h",
        "U"
      ],
      [
        "be",
        "fd"
      ],
      [
        "if",
        "hh"
      ],
      [
        "fhi",
        "fgh"
      ],
      [
        "~",
        "`"
      ],
      [
        "Y",
        "e"
      ],
      [
        "Z",
        "v"
      ],
      [
        "d",
        "S"
      ],
      [
        "i",
        "U"
      ],
      [
        "ddddda",
        "fg"
      ],
      [
        "ddd",
        "A"
      ],
      [
        "fg",
        "gg"
      ],
      [
        "j",
        "U"
      ],
      [
        "l",
        "U"
      ],
      [
        "ahg",
        "g"
      ],
      [
        "Y",
        "f"
      ],
      [
        "k",
        "w"
      ],
      [
        "q",
        "V"
      ],
      [
        "t",
        "s"
      ],
      [
        "ehhhe",
        "cdddfgifgh"
      ],
      [
        "d",
        "T"
      ],
      [
        "c",
        "cf"
      ],
      [
        "`",
        "}"
      ],
      [
        "\\",
        "{"
      ],
      [
        "c",
        "gh"
      ],
      [
        "Ā",
        "}"
      ],
      [
        "a",
        "y"
      ],
      [
        "p",
        "W"
      ],
      [
        "afe",
        "afe"
      ],
      [
        "l",
        "x"
      ],
      [
        "Y",
        "X"
      ],
      [
        "aih",
        "ffdddd"
      ],
      [
        "c",
        "T"
      ],
      [
        "Z",
        "Z"
      ],
      [
        "t",
        "j"
      ],
      [
        "]",
        "}"
      ],
      [
        "X",
        "e"
      ],
      [
        "b",
        "R"
      ],
      [
        "bee",
        "bde"
      ],
      [
        "[",
        "{"
      ],
      [
        "k",
        "x"
      ],
      [
        "s",
        "h"
      ],
      [
        "feddd",
        "bfg"
      ],
      [
        "n",
        "T"
      ],
      [
        "r",
        "v"
      ],
      [
        "dddb",
        "ff"
      ],
      [
        "\\",
        "|"
      ],
      [
        "be",
        "gd"
      ],
      [
        "f",
        "y"
      ],
      [
        "g",
        "z"
      ],
      [
        "bigg",
        "fdddd"
      ],
      [
        "m",
        "T"
      ],
      [
        "t",
        "p"
      ],
      [
        "[",
        "|"
      ],
      [
        "c",
        "z"
      ],
      [
        "f",
        "z"
      ],
      [
        "l",
        "z"
      ],
      [
        "t",
        "h"
      ],
      [
        "ee",
        "f"
      ],
      [
        "aiggedddd",
        "bfgcfe"
      ],
      [
        "o",
        "x"
      ],
      [
        "a",
        "T"
      ],
      [
        "e",
        "T"
      ],
      [
        "g",
        "x"
      ],
      [
        "r",
        "Y"
      ],
      [
        "s",
        "v"
      ],
      [
        "^",
        "}"
      ],
      [
        "a",
        "gi"
      ],
      [
        "w",
        "X"
      ],
      [
        "i",
        "S"
      ],
      [
        "j",
        "T"
      ],
      [
        "n",
        "x"
      ],
      [
        "ffff",
        "g"
      ],
      [
        "bd",
        "h"
      ],
      [
        "W",
        "h"
      ],
      [
        "f",
        "S"
      ],
      [
        "j",
        "S"
      ],
      [
        "p",
        "w"
      ],
      [
        "Y",
        "v"
      ],
      [
        "]",
        "Ā"
      ],
      [
        "q",
        "y"
      ],
      [
        "o",
        "U"
      ],
      [
        "eg",
        "j"
      ],
      [
        "k",
        "T"
      ],
      [
        "cff",
        "bedbeebee"
      ],
      [
        "_",
        "~"
      ],
      [
        "bd",
        "c"
      ],
      [
        "j",
        "y"
      ],
      [
        "o",
        "c"
      ],
      [
        "r",
        "X"
      ],
      [
        "ehhhf",
        "cdddfgifgh"
      ],
      [
        "Y",
        "Z"
      ],
      [
        "{",
        "^"
      ],
      [
        "s",
        "l"
      ],
      [
        "w",
        "p"
      ],
      [
        "Y",
        "W"
      ],
      [
        "s",
        "W"
      ],
      [
        "]",
        "~"
      ],
      [
        "h",
        "T"
      ],
      [
        "t",
        "v"
      ],
      [
        "ff",
        "eddd"
      ],
      [
        "t",
        "m"
      ],
      [
        "Y",
        "d"
      ],
      [
        "e",
        "U"
      ],
      [
        "f",
        "T"
      ],
      [
        "n",
        "z"
      ],
      [
        "q",
        "x"
      ],
      [
        "ff",
        "ddd"
      ],
      [
        "_",
        "ġ"
      ],
      [
        "t",
        "g"
      ],
      [
        "s",
        "w"
      ],
      [
        "dd",
        "dddbfh"
      ],
      [
        "w",
        "v"
      ],
      [
        "ÂĢ",
        "Ā"
      ],
      [
        "W",
        "m"
      ],
      [
        "X",
        "m"
      ],
      [
        "ai",
        "hi"
      ],
      [
        "Y",
        "c"
      ],
      [
        "b",
        "gi"
      ],
      [
        "q",
        "U"
      ],
      [
        "}",
        "_"
      ],
      [
        "q",
        "w"
      ],
      [
        "R",
        "u"
      ],
      [
        "X",
        "l"
      ],
      [
        "Y",
        "o"
      ],
      [
        "n",
        "y"
      ],
      [
        "v",
        "k"
      ],
      [
        "{",
        "_"
      ],
      [
        "V",
        "t"
      ],
      [
        "\\",
        "ÂĢ"
      ],
      [
        "cee",
        "bee"
      ],
      [
        "dd",
        "ddde"
      ],
      [
        "W",
        "u"
      ],
      [
        "p",
        "b"
      ],
      [
        "X",
        "r"
      ],
      [
        "hg",
        "dddd"
      ],
      [
        "X",
        "h"
      ],
      [
        "Y",
        "m"
      ],
      [
        "ced",
        "beebee"
      ],
      [
        "hd",
        "cddd"
      ],
      [
        "n",
        "U"
      ],
      [
        "Ā",
        "\\"
      ],
      [
        "r",
        "Z"
      ],
      [
        "Ā",
        "_"
      ],
      [
        "g",
        "y"
      ],
      [
        "w",
        "s"
      ],
      [
        "`",
        "ġ"
      ],
      [
        "bfe",
        "bef"
      ],
      [
        "X",
        "j"
      ],
      [
        "X",
        "k"
      ],
      [
        "\\",
        "}"
      ],
      [
        "[",
        "~"
      ],
      [
        "if",
        "dddd"
      ],
      [
        "Y",
        "n"
      ],
      [
        "c",
        "S"
      ],
      [
        "o",
        "z"
      ],
      [
        "bihg",
        "ecddd"
      ],
      [
        "p",
        "x"
      ],
      [
        "ee",
        "ff"
      ],
      [
        "bi",
        "he"
      ],
      [
        "[",
        "}"
      ],
      [
        "q",
        "b"
      ],
      [
        "u",
        "j"
      ],
      [
        "i",
        "x"
      ],
      [
        "ġ",
        "Ā"
      ],
      [
        "ÂĤ",
        "Ā"
      ],
      [
        "^",
        "Ā"
      ],
      [
        "u",
        "k"
      ],
      [
        "g",
        "fh"
      ],
      [
        "i",
        "y"
      ],
      [
        "w",
        "r"
      ],
      [
        "aj",
        "gg"
      ],
      [
        "u",
        "n"
      ],
      [
        "b",
        "hc"
      ],
      [
        "beg",
        "bef"
      ],
      [
        "s",
        "d"
      ],
      [
        "Ā",
        "Âĥ"
      ],
      [
        "|",
        "`"
      ],
      [
        "~",
        "_"
      ],
      [
        "e",
        "y"
      ],
      [
        "s",
        "Z"
      ],
      [
        "|",
        "]"
      ],
      [
        "ef",
        "ddd"
      ],
      [
        "W",
        "g"
      ],
      [
        "Y",
        "a"
      ],
      [
        "de",
        "h"
      ],
      [
        "bfd",
        "bed"
      ],
      [
        "{",
        "]"
      ],
      [
        "m",
        "U"
      ],
      [
        "v",
        "l"
      ],
      [
        "Y",
        "V"
      ],
      [
        "Y",
        "w"
      ],
      [
        "r",
        "V"
      ],
      [
        "u",
        "h"
      ],
      [
        "v",
        "j"
      ],
      [
        "|",
        "^"
      ],
      [
        "de",
        "d"
      ],
      [
        "|",
        "\\"
      ],
      [
        "gg",
        "dddd"
      ],
      [
        "feg",
        "feh"
      ],
      [
        "W",
        "k"
      ],
      [
        "t",
        "q"
      ],
      [
        "u",
        "g"
      ],
      [
        "m",
        "z"
      ],
      [
        "bj",
        "hgedddd"
      ],
      [
        "W",
        "v"
      ],
      [
        "be",
        "hh"
      ],
      [
        "hf",
        "i"
      ],
      [
        "ad",
        "h"
      ],
      [
        "s",
        "f"
      ],
      [
        "v",
        "n"
      ],
      [
        "bfg",
        "cef"
      ],
      [
        "bd",
        "eehh"
      ],
      [
        "o",
        "w"
      ],
      [
        "^",
        "ġ"
      ],
      [
        "s",
        "U"
      ],
      [
        "s",
        "V"
      ],
      [
        "t",
        "Z"
      ],
      [
        "hg",
        "j"
      ],
      [
        "]",
        "ġ"
      ],
      [
        "s",
        "q"
      ],
      [
        "W",
        "o"
      ],
      [
        "r",
        "c"
      ],
      [
        "de",
        "dddbfh"
      ],
      [
        "T",
        "v"
      ],
      [
        "W",
        "w"
      ],
      [
        "^",
        "~"
      ],
      [
        "m",
        "R"
      ],
      [
        "V",
        "j"
      ],
      [
        "u",
        "o"
      ],
      [
        "Ā",
        "|"
      ],
      [
        "cfe",
        "cee"
      ],
      [
        "Y",
        "x"
      ],
      [
        "i",
        "R"
      ],
      [
        "]",
        "ÂĢ"
      ],
      [
        "r",
        "U"
      ],
      [
        "u",
        "l"
      ],
      [
        "u",
        "t"
      ],
      [
        "\\",
        "ġ"
      ],
      [
        "hh",
        "e"
      ],
      [
        "X",
        "p"
      ],
      [
        "S",
        "v"
      ],
      [
        "W",
        "j"
      ],
      [
        "n",
        "w"
      ],
      [
        "fg",
        "dddd"
      ],
      [
        "{",
        "["
      ],
      [
        "fgg",
        "fg"
      ],
      [
        "eghh",
        "ecddd"
      ],
      [
        "u",
        "p"
      ],
      [
        "_",
        "Âģ"
      ],
      [
        "Z",
        "w"
      ],
      [
        "h",
        "z"
      ],
      [
        "bihh",
        "fdddd"
      ],
      [
        "_",
        "ÂĢ"
      ],
      [
        "b",
        "bg"
      ],
      [
        "}",
        "]"
      ],
      [
        "c",
        "R"
      ],
      [
        "ee",
        "j"
      ],
      [
        "ee",
        "dddc"
      ],
      [
        "X",
        "v"
      ],
      [
        "g",
        "T"
      ],
      [
        "u",
        "r"
      ],
      [
        "ig",
        "cddd"
      ],
      [
        "cfd",
        "cfd"
      ],
      [
        "Ā",
        "@"
      ],
      [
        "Z",
        "a"
      ],
      [
        "a",
        "hj"
      ],
      [
        "Ā",
        "Âĩ"
      ],
      [
        "fi",
        "i"
      ],
      [
        "c",
        "ie"
      ],
      [
        "r",
        "b"
      ],
      [
        "eg",
        "e"
      ],
      [
        "Ā",
        "ġ"
      ],
      [
        "hf",
        "j"
      ],
      [
        "bihgedddd",
        "bfh"
      ],
      [
        "beebee",
        "bdf"
      ],
      [
        "ff",
        "f"
      ],
      [
        "bf",
        "ee"
      ],
      [
        "W",
        "p"
      ],
      [
        "X",
        "a"
      ],
      [
        "Z",
        "q"
      ],
      [
        "^",
        "Âģ"
      ],
      [
        "V",
        "v"
      ],
      [
        "X",
        "f"
      ],
      [
        "r",
        "d"
      ],
      [
        "s",
        "Y"
      ],
      [
        "s",
        "e"
      ],
      [
        "ġ",
        "`"
      ],
      [
        "W",
        "n"
      ],
      [
        "ge",
        "j"
      ],
      [
        "bihg",
        "eedddbfhcff"
      ],
      [
        "V",
        "e"
      ],
      [
        "s",
        "c"
      ],
      [
        "bfebfe",
        "bef"
      ],
      [
        "W",
        "i"
      ],
      [
        "fe",
        "hi"
      ],
      [
        "bigg",
        "eedddbfgcfe"
      ],
      [
        "Y",
        "y"
      ],
      [
        "S",
        "U"
      ],
      [
        "cd",
        "h"
      ],
      [
        "W",
        "t"
      ],
      [
        "X",
        "o"
      ],
      [
        "aj",
        "hh"
      ],
      [
        "a",
        "bf"
      ],
      [
        "X",
        "x"
      ],
      [
        "g",
        "U"
      ],
      [
        "Ā",
        "]"
      ],
      [
        "eghh",
        "fcddd"
      ],
      [
        "~",
        "^"
      ],
      [
        "Ā",
        "Âĵ"
      ],
      [
        "dg",
        "i"
      ],
      [
        "Z",
        "V"
      ],
      [
        "s",
        "x"
      ],
      [
        "w",
        "o"
      ],
      [
        "ced",
        "bedcee"
      ],
      [
        "k",
        "U"
      ],
      [
        "dd",
        "fe"
      ],
      [
        "bi",
        "f"
      ],
      [
        "b",
        "cddd"
      ],
      [
        "V",
        "i"
      ],
      [
        "Q",
        "v"
      ],
      [
        "fd",
        "f"
      ],
      [
        "fgg",
        "ffgffh"
      ],
      [
        "c",
        "hc"
      ],
      [
        "ced",
        "cde"
      ],
      [
        "l",
        "S"
      ],
      [
        "z",
        "w"
      ],
      [
        "Z",
        "y"
      ],
      [
        "b",
        "P"
      ],
      [
        "dd",
        "ed"
      ],
      [
        "h",
        "dddd"
      ],
      [
        "bfe",
        "bff"
      ],
      [
        "bfe",
        "bfebee"
      ],
      [
        "s",
        "X"
      ],
      [
        "}",
        "["
      ],
      [
        "Ā",
        "ÂĤ"
      ],
      [
        "z",
        "v"
      ],
      [
        "^",
        "ÂĤ"
      ],
      [
        "t",
        "f"
      ],
      [
        "w",
        "j"
      ],
      [
        "Ā",
        "`"
      ],
      [
        "W",
        "e"
      ],
      [
        "s",
        "y"
      ],
      [
        "Ā",
        "Âį"
      ],
      [
        "feddd",
        "bfgcfe"
      ],
      [
        "s",
        "a"
      ],
      [
        "S",
        "u"
      ],
      [
        "W",
        "d"
      ],
      [
        "q",
        "T"
      ],
      [
        "t",
        "e"
      ],
      [
        "t",
        "r"
      ],
      [
        "ci",
        "i"
      ],
      [
        "S",
        "x"
      ],
      [
        "V",
        "n"
      ],
      [
        "W",
        "x"
      ],
      [
        "k",
        "R"
      ],
      [
        "X",
        "d"
      ],
      [
        "}",
        "`"
      ],
      [
        "W",
        "r"
      ],
      [
        "w",
        "n"
      ],
      [
        "|",
        "_"
      ],
      [
        "cj",
        "g"
      ],
      [
        "W",
        "y"
      ],
      [
        "gh",
        "k"
      ],
      [
        "{",
        "Ā"
      ],
      [
        "Y",
        "b"
      ],
      [
        "a",
        "be"
      ],
      [
        "dd",
        "dddb"
      ],
      [
        "V",
        "r"
      ],
      [
        "\\",
        "Ā"
      ],
      [
        "t",
        "l"
      ],
      [
        "}",
        "^"
      ],
      [
        "aihgedddd",
        "bfhcff"
      ],
      [
        "\\",
        "~"
      ],
      [
        "m",
        "Q"
      ],
      [
        "eg",
        "fefg"
      ],
      [
        "ggi",
        "ffh"
      ],
      [
        "cedced",
        "cde"
      ],
      [
        "aihh",
        "edddd"
      ],
      [
        "P",
        "ÃĪ"
      ],
      [
        "bfd",
        "cee"
      ],
      [
        "a",
        "P"
      ],
      [
        "t",
        "Y"
      ],
      [
        "Ā",
        "Âģ"
      ],
      [
        "afh",
        "cff"
      ],
      [
        "W",
        "l"
      ],
      [
        "\\",
        "Âģ"
      ],
      [
        "u",
        "u"
      ],
      [
        "q",
        "Q"
      ],
      [
        "V",
        "h"
      ],
      [
        "V",
        "g"
      ],
      [
        "p",
        "U"
      ],
      [
        "fh",
        "ie"
      ],
      [
        "T",
        "y"
      ],
      [
        "V",
        "f"
      ],
      [
        "`",
        "Âģ"
      ],
      [
        "|",
        "["
      ],
      [
        "hh",
        "i"
      ],
      [
        "hh",
        "j"
      ],
      [
        "hg",
        "i"
      ],
      [
        "bfg",
        "cge"
      ],
      [
        "fi",
        "j"
      ],
      [
        "V",
        "o"
      ],
      [
        "ġ",
        "_"
      ],
      [
        "je",
        "cddd"
      ],
      [
        "q",
        "z"
      ],
      [
        "Ā",
        "~"
      ],
      [
        "]",
        "Âģ"
      ],
      [
        "Ā",
        ":"
      ],
      [
        "U",
        "e"
      ],
      [
        "r",
        "y"
      ],
      [
        "v",
        "u"
      ],
      [
        "ai",
        "he"
      ],
      [
        "S",
        "g"
      ],
      [
        "j",
        "z"
      ],
      [
        "w",
        "g"
      ],
      [
        "Ā",
        ";"
      ],
      [
        "V",
        "u"
      ],
      [
        "cc",
        "dd"
      ],
      [
        "aiggedddd",
        "afgbfe"
      ],
      [
        "T",
        "o"
      ],
      [
        "x",
        "i"
      ],
      [
        "f",
        "Q"
      ],
      [
        "l",
        "ÃĪ"
      ],
      [
        "t",
        "W"
      ],
      [
        "ffg",
        "ffg"
      ],
      [
        "aigg",
        "fdddd"
      ],
      [
        "cedbee",
        "cee"
      ],
      [
        "R",
        "U"
      ],
      [
        "c",
        "if"
      ],
      [
        "m",
        "S"
      ],
      [
        "w",
        "k"
      ],
      [
        "Z",
        "T"
      ],
      [
        "Z",
        "b"
      ],
      [
        "bihgedddd",
        "begcfe"
      ],
      [
        "Z",
        "x"
      ],
      [
        "e",
        "hj"
      ],
      [
        "V",
        "k"
      ],
      [
        "}",
        "\\"
      ],
      [
        "e",
        "fe"
      ],
      [
        "h",
        "ÃĪ"
      ],
      [
        "~",
        "]"
      ],
      [
        "Ā",
        "ÂĢ"
      ],
      [
        "df",
        "i"
      ],
      [
        "U",
        "i"
      ],
      [
        "\\",
        "ÂĤ"
      ],
      [
        "b",
        "Q"
      ],
      [
        "dd",
        "h"
      ],
      [
        "ffffeg",
        "feh"
      ],
      [
        "T",
        "g"
      ],
      [
        "w",
        "w"
      ],
      [
        "=",
        "Ā"
      ],
      [
        "b",
        "S"
      ],
      [
        "t",
        "o"
      ],
      [
        "gf",
        "bddd"
      ],
      [
        "y",
        "l"
      ],
      [
        "ff",
        "gh"
      ],
      [
        "cd",
        "ee"
      ],
      [
        "hh",
        "g"
      ],
      [
        "gg",
        "k"
      ],
      [
        "P",
        "v"
      ],
      [
        "u",
        "d"
      ],
      [
        "Ā",
        "ÂĪ"
      ],
      [
        "dd",
        "fc"
      ],
      [
        ">",
        "Ā"
      ],
      [
        "L",
        "ÃĪ"
      ],
      [
        "Y",
        "p"
      ],
      [
        "c",
        "Q"
      ],
      [
        "r",
        "x"
      ],
      [
        "~",
        "["
      ],
      [
        "gg",
        "ig"
      ],
      [
        "cf",
        "ee"
      ],
      [
        "f",
        "ÃĪ"
      ],
      [
        "U",
        "h"
      ],
      [
        "Y",
        "z"
      ],
      [
        "R",
        "k"
      ],
      [
        "V",
        "q"
      ],
      [
        "s",
        "z"
      ],
      [
        "u",
        "v"
      ],
      [
        "x",
        "g"
      ],
      [
        "Y",
        "q"
      ],
      [
        "a",
        "S"
      ],
      [
        "Âĩ",
        "Ā"
      ],
      [
        "V",
        "p"
      ],
      [
        "y",
        "v"
      ],
      [
        "bihgedddd",
        "begcef"
      ],
      [
        "Q",
        "ÃĪ"
      ],
      [
        "Âģ",
        "_"
      ],
      [
        "R",
        "x"
      ],
      [
        "T",
        "n"
      ],
      [
        "U",
        "v"
      ],
      [
        "de",
        "i"
      ],
      [
        "_",
        "ÂĤ"
      ],
      [
        "Âĥ",
        "Ā"
      ],
      [
        "d",
        "ÃĪ"
      ],
      [
        "u",
        "q"
      ],
      [
        "ge",
        "h"
      ],
      [
        "aihg",
        "eeddd"
      ],
      [
        "V",
        "w"
      ],
      [
        "u",
        "i"
      ],
      [
        "bedbee",
        "bef"
      ],
      [
        "j",
        "Q"
      ],
      [
        "dd",
        "fd"
      ],
      [
        "beg",
        "bfe"
      ],
      [
        "bedbee",
        "cee"
      ],
      [
        "bdd",
        "bde"
      ],
      [
        "`",
        "ÂĦ"
      ],
      [
        "t",
        "d"
      ],
      [
        "X",
        "n"
      ],
      [
        "u",
        "x"
      ],
      [
        "ġ",
        "]"
      ],
      [
        "T",
        "l"
      ],
      [
        "`",
        "ÂĤ"
      ],
      [
        "t",
        "w"
      ],
      [
        "Ā",
        "Âİ"
      ],
      [
        "eg",
        "hj"
      ],
      [
        "eghi",
        "e"
      ],
      [
        "U",
        "d"
      ],
      [
        "y",
        "n"
      ],
      [
        "X",
        "W"
      ],
      [
        "Ā",
        "ÂĲ"
      ],
      [
        "h",
        "S"
      ],
      [
        "k",
        "P"
      ],
      [
        "o",
        "y"
      ],
      [
        "ce",
        "i"
      ],
      [
        "bhg",
        "gedddd"
      ],
      [
        "U",
        "r"
      ],
      [
        "a",
        "hd"
      ],
      [
        "v",
        "g"
      ],
      [
        "Ā",
        "ÂĦ"
      ],
      [
        "beg",
        "bee"
      ],
      [
        "Y",
        "s"
      ],
      [
        "d",
        "hf"
      ],
      [
        "g",
        "fg"
      ],
      [
        "T",
        "m"
      ],
      [
        "eghi",
        "f"
      ],
      [
        "]",
        "ÂĤ"
      ],
      [
        "w",
        "i"
      ],
      [
        "u",
        "m"
      ],
      [
        "x",
        "m"
      ],
      [
        "bi",
        "ig"
      ],
      [
        "fh",
        "k"
      ],
      [
        "afg",
        "cfe"
      ],
      [
        "t",
        "x"
      ],
      [
        "bihgfdddd",
        "bfgcfe"
      ],
      [
        "dddddafh",
        "bff"
      ],
      [
        "c",
        "hj"
      ],
      [
        "Ā",
        "Âĳ"
      ],
      [
        "S",
        "z"
      ],
      [
        "v",
        "t"
      ],
      [
        "he",
        "i"
      ],
      [
        "y",
        "r"
      ],
      [
        "c",
        "P"
      ],
      [
        "U",
        "q"
      ],
      [
        "j",
        "R"
      ],
      [
        "Ā",
        "Âĭ"
      ],
      [
        "be",
        "hc"
      ],
      [
        "ÂĢ",
        "]"
      ],
      [
        "ge",
        "ddd"
      ],
      [
        "Z",
        "s"
      ],
      [
        "u",
        "s"
      ],
      [
        "S",
        "i"
      ],
      [
        "^",
        "Âĥ"
      ],
      [
        "ÃĪ",
        "M"
      ],
      [
        "aihgedddd",
        "afhbff"
      ],
      [
        "[",
        "ġ"
      ],
      [
        "a",
        "O"
      ],
      [
        "f",
        "R"
      ],
      [
        "[",
        "ÂĢ"
      ],
      [
        "`",
        "Âĥ"
      ],
      [
        "p",
        "y"
      ],
      [
        "x",
        "o"
      ],
      [
        "X",
        "q"
      ],
      [
        "c",
        "fi"
      ],
      [
        "V",
        "m"
      ],
      [
        "a",
        "Q"
      ],
      [
        "e",
        "z"
      ],
      [
        "t",
        "b"
      ]
    ]
  }
}